#include "models_data.h"

static const unsigned char MG_Battery_Active_Power_any_to_80_100_dense_bow_v500[] = {
    0x20, 0x00, 0x00, 0x00, 0x54, 0x46, 0x4c, 0x33, 0x00, 0x00, 0x00, 0x00,
    0x14, 0x00, 0x20, 0x00, 0x1c, 0x00, 0x18, 0x00, 0x14, 0x00, 0x10, 0x00,
    0x0c, 0x00, 0x00, 0x00, 0x08, 0x00, 0x04, 0x00, 0x14, 0x00, 0x00, 0x00,
    0x1c, 0x00, 0x00, 0x00, 0x80, 0x00, 0x00, 0x00, 0xd8, 0x00, 0x00, 0x00,
    0xc4, 0x2b, 0x00, 0x00, 0xd4, 0x2b, 0x00, 0x00, 0x94, 0x34, 0x00, 0x00,
    0x03, 0x00, 0x00, 0x00, 0x01, 0x00, 0x00, 0x00, 0x04, 0x00, 0x00, 0x00,
    0xea, 0xd3, 0xff, 0xff, 0x0c, 0x00, 0x00, 0x00, 0x1c, 0x00, 0x00, 0x00,
    0x38, 0x00, 0x00, 0x00, 0x0f, 0x00, 0x00, 0x00, 0x73, 0x65, 0x72, 0x76,
    0x69, 0x6e, 0x67, 0x5f, 0x64, 0x65, 0x66, 0x61, 0x75, 0x6c, 0x74, 0x00,
    0x01, 0x00, 0x00, 0x00, 0x04, 0x00, 0x00, 0x00, 0x9c, 0xff, 0xff, 0xff,
    0x0b, 0x00, 0x00, 0x00, 0x04, 0x00, 0x00, 0x00, 0x07, 0x00, 0x00, 0x00,
    0x64, 0x65, 0x6e, 0x73, 0x65, 0x5f, 0x32, 0x00, 0x01, 0x00, 0x00, 0x00,
    0x04, 0x00, 0x00, 0x00, 0xbe, 0xd4, 0xff, 0xff, 0x04, 0x00, 0x00, 0x00,
    0x07, 0x00, 0x00, 0x00, 0x69, 0x6e, 0x70, 0x75, 0x74, 0x5f, 0x31, 0x00,
    0x02, 0x00, 0x00, 0x00, 0x34, 0x00, 0x00, 0x00, 0x04, 0x00, 0x00, 0x00,
    0xdc, 0xff, 0xff, 0xff, 0x0e, 0x00, 0x00, 0x00, 0x04, 0x00, 0x00, 0x00,
    0x13, 0x00, 0x00, 0x00, 0x43, 0x4f, 0x4e, 0x56, 0x45, 0x52, 0x53, 0x49,
    0x4f, 0x4e, 0x5f, 0x4d, 0x45, 0x54, 0x41, 0x44, 0x41, 0x54, 0x41, 0x00,
    0x08, 0x00, 0x0c, 0x00, 0x08, 0x00, 0x04, 0x00, 0x08, 0x00, 0x00, 0x00,
    0x0d, 0x00, 0x00, 0x00, 0x04, 0x00, 0x00, 0x00, 0x13, 0x00, 0x00, 0x00,
    0x6d, 0x69, 0x6e, 0x5f, 0x72, 0x75, 0x6e, 0x74, 0x69, 0x6d, 0x65, 0x5f,
    0x76, 0x65, 0x72, 0x73, 0x69, 0x6f, 0x6e, 0x00, 0x0f, 0x00, 0x00, 0x00,
    0xe8, 0x2a, 0x00, 0x00, 0xe0, 0x2a, 0x00, 0x00, 0xcc, 0x2a, 0x00, 0x00,
    0x74, 0x2a, 0x00, 0x00, 0x64, 0x29, 0x00, 0x00, 0x54, 0x19, 0x00, 0x00,
    0x44, 0x18, 0x00, 0x00, 0xb4, 0x00, 0x00, 0x00, 0xac, 0x00, 0x00, 0x00,
    0xa4, 0x00, 0x00, 0x00, 0x9c, 0x00, 0x00, 0x00, 0x94, 0x00, 0x00, 0x00,
    0x8c, 0x00, 0x00, 0x00, 0x6c, 0x00, 0x00, 0x00, 0x04, 0x00, 0x00, 0x00,
    0x6e, 0xd5, 0xff, 0xff, 0x04, 0x00, 0x00, 0x00, 0x58, 0x00, 0x00, 0x00,
    0x0c, 0x00, 0x00, 0x00, 0x08, 0x00, 0x0e, 0x00, 0x08, 0x00, 0x04, 0x00,
    0x08, 0x00, 0x00, 0x00, 0x10, 0x00, 0x00, 0x00, 0x28, 0x00, 0x00, 0x00,
    0x00, 0x00, 0x06, 0x00, 0x08, 0x00, 0x04, 0x00, 0x06, 0x00, 0x00, 0x00,
    0x04, 0x00, 0x00, 0x00, 0x01, 0x00, 0x00, 0x00, 0xeb, 0x03, 0x00, 0x00,
    0x00, 0x00, 0x0a, 0x00, 0x10, 0x00, 0x0c, 0x00, 0x08, 0x00, 0x04, 0x00,
    0x0a, 0x00, 0x00, 0x00, 0x02, 0x00, 0x00, 0x00, 0x02, 0x00, 0x00, 0x00,
    0x04, 0x00, 0x00, 0x00, 0x06, 0x00, 0x00, 0x00, 0x32, 0x2e, 0x31, 0x35,
    0x2e, 0x31, 0x00, 0x00, 0xd2, 0xd5, 0xff, 0xff, 0x04, 0x00, 0x00, 0x00,
    0x10, 0x00, 0x00, 0x00, 0x31, 0x2e, 0x31, 0x34, 0x2e, 0x30, 0x00, 0x00,
    0x00, 0x00, 0x00, 0x00, 0x00, 0x00, 0x00, 0x00, 0x24, 0xd5, 0xff, 0xff,
    0x28, 0xd5, 0xff, 0xff, 0x2c, 0xd5, 0xff, 0xff, 0x30, 0xd5, 0xff, 0xff,
    0x34, 0xd5, 0xff, 0xff, 0x02, 0xd6, 0xff, 0xff, 0x04, 0x00, 0x00, 0x00,
    0x80, 0x17, 0x00, 0x00, 0xce, 0xe5, 0xf4, 0xfd, 0x06, 0xeb, 0xf5, 0x0a,
    0xf6, 0xf8, 0x15, 0x14, 0xff, 0x12, 0xf0, 0xe1, 0xf5, 0x37, 0x0b, 0x2a,
    0x09, 0xe7, 0xda, 0xdc, 0xcc, 0xcc, 0xd4, 0x1e, 0xf4, 0x2d, 0x22, 0xee,
    0x2b, 0x22, 0xd3, 0xe0, 0x08, 0x2b, 0xd6, 0xff, 0x12, 0xef, 0x21, 0x17,
    0xdc, 0x35, 0xfa, 0xf4, 0x1f, 0xd0, 0xdb, 0xcf, 0xd9, 0x13, 0x1f, 0xde,
    0xd1, 0xe6, 0x41, 0x17, 0x39, 0x27, 0xde, 0xd6, 0xf3, 0x23, 0x1b, 0x37,
    0x23, 0x14, 0xfa, 0xe7, 0x16, 0xd5, 0x06, 0xe5, 0xc9, 0xea, 0x08, 0xcd,
    0xdd, 0xf8, 0x26, 0x1d, 0xd6, 0xf7, 0xf3, 0xce, 0xde, 0xed, 0x26, 0x1a,
    0x1f, 0xce, 0xd1, 0xf7, 0x03, 0xd1, 0xb7, 0xd7, 0xce, 0xf6, 0xe0, 0xd7,
    0xda, 0xc2, 0x26, 0x0b, 0xf9, 0x14, 0xe2, 0xc2, 0x22, 0x1f, 0x38, 0x00,
    0xfd, 0x37, 0x17, 0x0d, 0x42, 0xc7, 0xf7, 0xf0, 0x0a, 0x32, 0xfd, 0x29,
    0x0d, 0x03, 0xd0, 0x17, 0xea, 0xfe, 0xcb, 0xe5, 0xc9, 0x1a, 0x08, 0x20,
    0x05, 0x29, 0x1c, 0x2a, 0x53, 0x05, 0x14, 0xd6, 0xe4, 0x02, 0xe9, 0xe1,
    0xd0, 0x21, 0x0e, 0x3d, 0xf2, 0xcd, 0xcf, 0xf5, 0x21, 0x0d, 0xc2, 0xf5,
    0x0f, 0x28, 0x0a, 0x26, 0x15, 0xd7, 0x00, 0xcf, 0xf5, 0xd5, 0x3d, 0xdc,
    0xcb, 0x28, 0xda, 0x15, 0xed, 0x0a, 0x1f, 0xe4, 0x3b, 0xeb, 0x39, 0x0e,
    0xe4, 0xea, 0x12, 0x45, 0xe1, 0xe3, 0x42, 0x05, 0xd2, 0x30, 0x0b, 0x26,
    0x14, 0xf1, 0x0a, 0xe8, 0xf7, 0xe8, 0xcc, 0x0c, 0xd9, 0x1d, 0x2c, 0xf8,
    0xf6, 0xff, 0xfd, 0xe6, 0x0c, 0x0a, 0x11, 0xcd, 0xf2, 0x25, 0x21, 0xe6,
    0x23, 0xec, 0xf8, 0x0a, 0xf2, 0x0b, 0x29, 0x0e, 0xe2, 0xdc, 0x0f, 0xd4,
    0xcf, 0xe9, 0xe0, 0xe2, 0xff, 0xfb, 0xe4, 0x0d, 0xf6, 0x0d, 0xe8, 0xd4,
    0x0e, 0x0e, 0xd1, 0x00, 0xd3, 0x1e, 0xfc, 0x08, 0xd5, 0xf5, 0x3e, 0xfc,
    0xda, 0xfe, 0xde, 0x2a, 0x11, 0x04, 0xda, 0x03, 0xcf, 0x04, 0xd3, 0xd5,
    0xcf, 0xed, 0xd2, 0xcc, 0xe1, 0xcc, 0x1c, 0x30, 0xe8, 0x04, 0x27, 0xc2,
    0x58, 0x59, 0x21, 0x16, 0x5c, 0x2f, 0x01, 0x40, 0x2f, 0xf2, 0xf3, 0x1f,
    0x3d, 0xdd, 0x03, 0x26, 0xdb, 0x01, 0x14, 0x49, 0x5d, 0xe1, 0xd4, 0x0f,
    0xdd, 0xe3, 0x05, 0xf6, 0xdc, 0xe0, 0xcf, 0xd7, 0xe8, 0x07, 0x13, 0x16,
    0x44, 0xce, 0x03, 0x24, 0x10, 0x0f, 0xfd, 0x0d, 0x04, 0x09, 0x2b, 0xee,
    0x24, 0x00, 0xe0, 0xe0, 0x11, 0x05, 0x2d, 0xff, 0x1b, 0xee, 0x14, 0xee,
    0xf0, 0x25, 0xe2, 0x17, 0x0d, 0x14, 0x31, 0x2c, 0x40, 0x03, 0x24, 0x07,
    0x10, 0x07, 0xfd, 0x11, 0xd9, 0x53, 0xda, 0x34, 0xcb, 0x2b, 0x25, 0x10,
    0x42, 0xd7, 0x0a, 0xf2, 0x1f, 0xd9, 0xfb, 0xea, 0xe4, 0xfe, 0x02, 0x16,
    0x00, 0x09, 0xe8, 0x2c, 0xd1, 0xd9, 0xe0, 0xe5, 0xd7, 0xd2, 0x17, 0xea,
    0xed, 0xcb, 0x03, 0x07, 0x30, 0xfb, 0xeb, 0xe0, 0x0a, 0x25, 0x37, 0x28,
    0x39, 0x25, 0x23, 0x12, 0xe6, 0xfc, 0xc7, 0x3a, 0x0e, 0x2e, 0xe1, 0x07,
    0x05, 0x13, 0xe8, 0x32, 0x12, 0x34, 0x32, 0x24, 0x1e, 0x33, 0x46, 0x2c,
    0x26, 0x01, 0xd4, 0xdc, 0xe4, 0x0a, 0x42, 0xe2, 0xea, 0xe7, 0x3c, 0x14,
    0x26, 0xd3, 0xd6, 0xd5, 0xe3, 0xe4, 0xeb, 0xcb, 0xcb, 0x31, 0x04, 0x1f,
    0x18, 0x20, 0x31, 0xed, 0x2d, 0x20, 0xf7, 0x1d, 0x0e, 0xe7, 0x1f, 0x03,
    0x0f, 0x11, 0x06, 0xf0, 0xe8, 0x2a, 0xeb, 0xd7, 0xd5, 0xc9, 0xe5, 0xd4,
    0xe1, 0x3f, 0xc4, 0x0e, 0x02, 0xcd, 0xcf, 0xfa, 0xf3, 0xef, 0x0f, 0x02,
    0xdc, 0x1b, 0x32, 0xca, 0xea, 0x15, 0x31, 0x0c, 0x27, 0x20, 0x2c, 0xfe,
    0x17, 0x0e, 0x08, 0xf2, 0x1b, 0x3e, 0x07, 0xdf, 0x1f, 0x12, 0xdd, 0xf0,
    0x21, 0xec, 0x05, 0x23, 0x1e, 0x1e, 0x26, 0x1a, 0x29, 0xf8, 0xe1, 0x3d,
    0x26, 0xd1, 0xd2, 0x1d, 0xd9, 0xfa, 0x07, 0xd8, 0x27, 0x09, 0x28, 0xff,
    0xe4, 0x44, 0xcd, 0xe0, 0xf6, 0xd4, 0x0f, 0x05, 0x03, 0xd9, 0xd9, 0x2f,
    0xd7, 0xd3, 0x13, 0xfc, 0xcf, 0x22, 0xf0, 0xf5, 0x01, 0x0d, 0x10, 0xec,
    0x3b, 0xd7, 0x2f, 0xe2, 0x14, 0x26, 0x08, 0x58, 0xd6, 0x37, 0x38, 0x12,
    0xe7, 0x33, 0x52, 0x34, 0xf1, 0xd5, 0x00, 0x23, 0x3e, 0x15, 0xe1, 0x33,
    0xe1, 0x1d, 0x3c, 0xd4, 0x04, 0x05, 0xf2, 0xe5, 0xce, 0x26, 0x26, 0x1c,
    0xf4, 0xd1, 0x2b, 0xe8, 0x07, 0xd4, 0x09, 0xdf, 0xfa, 0xed, 0x06, 0x15,
    0x10, 0x16, 0xc6, 0x0b, 0x25, 0x13, 0x1c, 0x1d, 0x12, 0xe5, 0x2c, 0x27,
    0x10, 0xea, 0xd2, 0xf7, 0xf1, 0xf6, 0xff, 0xf6, 0xce, 0x2d, 0x14, 0xe5,
    0xf8, 0x47, 0xdc, 0x28, 0x24, 0x17, 0x2f, 0x31, 0xfe, 0x00, 0x13, 0x3b,
    0x0b, 0x20, 0xf1, 0x40, 0xf7, 0xdf, 0x34, 0xe8, 0xe1, 0xed, 0xeb, 0x31,
    0x27, 0x00, 0xf5, 0xfc, 0xd1, 0xd1, 0xfb, 0x0f, 0xe7, 0xe4, 0xf8, 0xe8,
    0x29, 0x12, 0xed, 0x0e, 0x1f, 0xf6, 0xe7, 0x05, 0x2d, 0x1d, 0x1e, 0x40,
    0xef, 0xf7, 0xf9, 0xff, 0xe6, 0xef, 0x11, 0xde, 0x16, 0xe2, 0x0a, 0xf1,
    0xd3, 0xf4, 0xde, 0x11, 0xfe, 0xd7, 0xd4, 0x01, 0xdf, 0xcc, 0xf2, 0xe2,
    0xcf, 0xd4, 0x2e, 0x08, 0xd1, 0x11, 0xfe, 0xd2, 0x34, 0x11, 0x10, 0x2c,
    0xff, 0xe2, 0x31, 0xe7, 0x06, 0xcc, 0xe3, 0x0e, 0xed, 0xf8, 0xdd, 0x27,
    0xcd, 0xd3, 0xf1, 0xd4, 0xde, 0xee, 0x07, 0xf6, 0x33, 0x0d, 0x05, 0x2a,
    0xd4, 0x0d, 0x27, 0xdf, 0x0d, 0xd2, 0x08, 0x1e, 0xf4, 0xda, 0xdf, 0xf1,
    0xc1, 0x14, 0xcd, 0xe2, 0xdd, 0xe1, 0xe2, 0x0d, 0xc0, 0x1e, 0xd7, 0x03,
    0xd9, 0xdc, 0xb6, 0x23, 0xcc, 0x06, 0xee, 0xf6, 0x24, 0xc7, 0xe5, 0x16,
    0x32, 0x00, 0x00, 0x04, 0x18, 0x03, 0x3c, 0x13, 0xe6, 0x0b, 0x05, 0x05,
    0xf5, 0x1e, 0x06, 0x1a, 0x35, 0xd2, 0x17, 0x09, 0xf4, 0x14, 0x22, 0xf3,
    0xf9, 0x27, 0x0f, 0x25, 0x21, 0x02, 0xce, 0x16, 0x1b, 0x31, 0x32, 0x16,
    0x2c, 0xe6, 0x1c, 0xf2, 0xde, 0x34, 0xd2, 0xd2, 0x2b, 0xe5, 0xe7, 0x1f,
    0xee, 0x25, 0x07, 0xd1, 0xea, 0x21, 0x1d, 0x07, 0x32, 0xcd, 0xeb, 0xf2,
    0x05, 0x30, 0xf1, 0x21, 0xdf, 0x13, 0x3e, 0x34, 0x38, 0xf2, 0xed, 0xd3,
    0xec, 0xf9, 0xee, 0xc2, 0xdc, 0x3d, 0xf7, 0xfb, 0xf6, 0xec, 0x14, 0x34,
    0x0e, 0x15, 0x14, 0xbc, 0x0e, 0x1d, 0x16, 0xf0, 0xc7, 0xfa, 0xee, 0x31,
    0xf4, 0xde, 0x21, 0xe8, 0xd9, 0xe0, 0x12, 0xeb, 0x1a, 0x18, 0xde, 0x11,
    0x17, 0x0d, 0x3c, 0x34, 0xd6, 0xfa, 0x25, 0x1d, 0xd9, 0xdf, 0xe9, 0x2a,
    0x11, 0x1b, 0x0c, 0xd8, 0x18, 0x33, 0x10, 0xfb, 0x18, 0x13, 0xe1, 0xcf,
    0xeb, 0x36, 0x2e, 0xd0, 0x2f, 0x38, 0xd8, 0xdd, 0xed, 0x20, 0xfc, 0x2c,
    0x24, 0xf4, 0xdc, 0xc7, 0x0f, 0xf9, 0xf3, 0x06, 0x2f, 0x30, 0x26, 0xdc,
    0xef, 0xd4, 0xef, 0x30, 0x3a, 0xe1, 0xe7, 0x18, 0x3a, 0xdc, 0x17, 0x4a,
    0xe7, 0x4f, 0x31, 0x18, 0xff, 0x3e, 0x2d, 0x4b, 0xee, 0xde, 0xf5, 0x13,
    0xf9, 0x27, 0x06, 0x28, 0x43, 0x1f, 0x19, 0xd7, 0x10, 0xcd, 0x07, 0x1e,
    0xea, 0xda, 0x21, 0xe9, 0xd1, 0x02, 0xdf, 0x04, 0xff, 0x09, 0x23, 0xec,
    0x02, 0xba, 0x07, 0x14, 0x32, 0x19, 0xdb, 0xef, 0x31, 0x09, 0x10, 0x13,
    0xda, 0x13, 0x31, 0xcb, 0xea, 0x05, 0xfa, 0xd0, 0x03, 0x06, 0xe2, 0x2f,
    0xd2, 0x0e, 0x04, 0x08, 0x06, 0x42, 0xfc, 0x31, 0xe1, 0x0b, 0x27, 0x1b,
    0xc5, 0x1a, 0xcd, 0x00, 0x07, 0xcd, 0xd8, 0xfc, 0xf3, 0xda, 0xce, 0xe1,
    0xed, 0xcf, 0xfe, 0x25, 0x06, 0x19, 0xda, 0x0f, 0x00, 0xdd, 0xd5, 0xd2,
    0xdb, 0x44, 0xf8, 0xfa, 0xdf, 0xe4, 0xfc, 0xdc, 0xd1, 0x05, 0xfb, 0x1b,
    0x01, 0x03, 0xdc, 0xdb, 0xf2, 0x44, 0x14, 0x04, 0x21, 0x0d, 0x0b, 0xbd,
    0xfb, 0x29, 0x0a, 0x07, 0x24, 0x3f, 0xe3, 0xe1, 0x28, 0xfa, 0x31, 0x20,
    0xee, 0x00, 0x1e, 0x09, 0x28, 0xf9, 0x21, 0x12, 0x24, 0x0d, 0xea, 0xcc,
    0xe0, 0x04, 0x0f, 0x16, 0x18, 0xf8, 0x02, 0xfb, 0xd0, 0xf5, 0x45, 0xd4,
    0x3d, 0x4e, 0x2b, 0xde, 0xe8, 0x0e, 0xee, 0x36, 0x13, 0x0e, 0xec, 0xcf,
    0x28, 0xc9, 0xfe, 0x04, 0xd5, 0xe5, 0x17, 0xc3, 0x25, 0xd8, 0xd8, 0xeb,
    0x21, 0xe2, 0x0e, 0xe3, 0xd7, 0x16, 0x12, 0xdd, 0xed, 0xbf, 0xe4, 0xde,
    0x08, 0xf3, 0xda, 0xf4, 0x19, 0xb6, 0xec, 0x22, 0xd9, 0xc0, 0x11, 0xe9,
    0x0d, 0xf5, 0xda, 0x57, 0x2d, 0x10, 0xf3, 0xe2, 0x1e, 0x23, 0xf9, 0x55,
    0x41, 0x25, 0xb4, 0x7f, 0x0e, 0xbe, 0x0f, 0x30, 0x04, 0x3b, 0x21, 0xea,
    0xdb, 0x35, 0x1c, 0x2d, 0x07, 0xf6, 0x1c, 0x10, 0x11, 0xfc, 0xd6, 0x24,
    0xd4, 0x36, 0x32, 0x08, 0x3d, 0xd0, 0x01, 0xee, 0xf7, 0xd3, 0x26, 0x11,
    0xee, 0x04, 0x1f, 0xfd, 0x29, 0x11, 0xf3, 0xcd, 0xce, 0x2d, 0x05, 0xe7,
    0x24, 0x31, 0xe0, 0xc3, 0x13, 0x0a, 0xf6, 0xe9, 0x31, 0x2b, 0x33, 0xeb,
    0x2e, 0x0a, 0xea, 0x10, 0x0e, 0x04, 0xd5, 0x18, 0x10, 0xde, 0xe2, 0xeb,
    0xd9, 0xc4, 0x39, 0xf9, 0xe2, 0xf5, 0xeb, 0xcb, 0x20, 0xd5, 0xd2, 0xf7,
    0xfa, 0xe0, 0xd6, 0xe2, 0x17, 0xff, 0xdb, 0xfa, 0xfe, 0x10, 0x01, 0x2c,
    0x20, 0x15, 0xe7, 0x0d, 0x1c, 0x1c, 0xdb, 0xd9, 0xf7, 0x17, 0xd7, 0x29,
    0x32, 0x11, 0x1e, 0x1f, 0x1e, 0x2a, 0x2c, 0xf8, 0x31, 0x23, 0x19, 0x2e,
    0x25, 0x07, 0x2b, 0x0a, 0xfe, 0xfb, 0xdc, 0x1e, 0x3c, 0xd8, 0xee, 0x0b,
    0xe6, 0xf0, 0xd8, 0x03, 0xce, 0x1b, 0xe1, 0xc6, 0x1c, 0xe8, 0x24, 0xfc,
    0x38, 0xfa, 0x05, 0x0f, 0x00, 0xe4, 0xd1, 0xe9, 0xe1, 0xe2, 0x31, 0xed,
    0xf0, 0xc0, 0xd2, 0x02, 0x18, 0x15, 0xf1, 0x28, 0x41, 0xcc, 0x37, 0x1c,
    0x0d, 0x52, 0x35, 0xea, 0xe5, 0x3f, 0xdf, 0xfb, 0xff, 0x58, 0x4a, 0xf3,
    0x20, 0x24, 0x0a, 0x24, 0x0b, 0x23, 0x0c, 0xdc, 0xe6, 0x0d, 0x15, 0x17,
    0xf9, 0xf4, 0x23, 0xe8, 0x03, 0xdd, 0xd7, 0x04, 0x0b, 0xe0, 0x26, 0x31,
    0xf6, 0x17, 0xe4, 0x34, 0x1c, 0x0c, 0x12, 0x30, 0xd7, 0xf3, 0xd0, 0x15,
    0xe8, 0xce, 0x11, 0xf4, 0xe5, 0xeb, 0x29, 0xdc, 0x2d, 0xfb, 0x02, 0x0d,
    0x0f, 0xf6, 0x20, 0xe8, 0x23, 0x2a, 0xdb, 0xe6, 0x14, 0x13, 0x0e, 0x26,
    0x0b, 0xf0, 0x11, 0xd3, 0x07, 0x07, 0xf4, 0xf9, 0x1b, 0x14, 0xb9, 0xda,
    0x1f, 0x1d, 0xd3, 0xe5, 0xec, 0xf7, 0x06, 0xc5, 0xe1, 0xb3, 0x09, 0x08,
    0x05, 0x28, 0xf3, 0xfa, 0x37, 0xc9, 0x32, 0xea, 0xfa, 0xe5, 0x04, 0x2d,
    0x08, 0xf7, 0x2d, 0xe0, 0x30, 0x13, 0x26, 0x2a, 0x10, 0x1a, 0x28, 0x34,
    0x31, 0xf9, 0x00, 0x1c, 0x25, 0x0b, 0x16, 0xf5, 0x41, 0xc5, 0xf8, 0x0b,
    0x30, 0x1d, 0xef, 0x1d, 0x0f, 0xd7, 0xf6, 0x05, 0xf9, 0x18, 0xd8, 0x22,
    0x34, 0x10, 0x3e, 0x2b, 0x36, 0x19, 0x07, 0x02, 0x03, 0x2e, 0x1d, 0xd2,
    0x00, 0x11, 0xed, 0xe2, 0xdc, 0xe7, 0x09, 0x32, 0xf3, 0x20, 0xe1, 0xfe,
    0x26, 0x0c, 0xe3, 0xea, 0xf9, 0x09, 0x04, 0x37, 0xe2, 0x11, 0xcf, 0x0b,
    0x02, 0xf9, 0xe6, 0x33, 0xe7, 0x0b, 0xf2, 0xb9, 0x26, 0x05, 0xe4, 0xd9,
    0xe6, 0xc9, 0xe2, 0x2d, 0xfe, 0x13, 0xcd, 0x3f, 0x26, 0x0d, 0x20, 0x2b,
    0xfa, 0xe5, 0x22, 0x3e, 0x0a, 0x17, 0x02, 0x31, 0xd8, 0xf9, 0x02, 0xfc,
    0x14, 0x27, 0x15, 0xc5, 0x08, 0x14, 0x26, 0xdf, 0x32, 0xd3, 0x48, 0x0b,
    0x1e, 0xd7, 0xec, 0x38, 0xdd, 0xdb, 0x15, 0x37, 0x07, 0x44, 0xe1, 0xdd,
    0xe6, 0x2d, 0x04, 0x5a, 0xe7, 0x0e, 0xe1, 0x24, 0x23, 0xcd, 0x02, 0x17,
    0xde, 0xd2, 0xd0, 0x18, 0x33, 0x22, 0xff, 0x2f, 0x0e, 0x17, 0x2e, 0x09,
    0x25, 0xe7, 0x26, 0xdd, 0x35, 0x2c, 0xc8, 0x02, 0x0e, 0x1a, 0xf5, 0x10,
    0xc2, 0xe4, 0xf3, 0xf8, 0xd7, 0xfd, 0x1c, 0xe3, 0xd0, 0x1d, 0xe5, 0xfd,
    0x14, 0x2f, 0x22, 0xc6, 0x0b, 0x4a, 0x41, 0xe0, 0x29, 0x2d, 0xff, 0xed,
    0xf6, 0x27, 0xe1, 0x08, 0xf9, 0x1f, 0x1d, 0x1c, 0xd9, 0x40, 0x07, 0x26,
    0x1a, 0xc9, 0x1d, 0x39, 0xdf, 0x28, 0x31, 0xe8, 0x42, 0x1d, 0xf9, 0xcd,
    0xef, 0x35, 0xd9, 0x2e, 0x0c, 0x0d, 0xd1, 0x32, 0xd5, 0x01, 0xe7, 0xe6,
    0x2c, 0x33, 0xed, 0x16, 0x22, 0xf5, 0x1c, 0x04, 0xfd, 0x17, 0x34, 0xf0,
    0xf8, 0xd7, 0x34, 0x2f, 0xf7, 0xe2, 0xe2, 0xf4, 0xe2, 0x32, 0x1a, 0x10,
    0x27, 0x1c, 0x0f, 0xfc, 0xc4, 0x3a, 0xe6, 0xcb, 0x07, 0xdb, 0xc7, 0x30,
    0xe3, 0xe9, 0x18, 0xf3, 0xcf, 0x11, 0xff, 0xed, 0xee, 0xc1, 0x37, 0xd2,
    0xde, 0x1a, 0x0d, 0x03, 0xeb, 0x37, 0x23, 0x24, 0xf9, 0xca, 0x29, 0xe9,
    0x3d, 0x24, 0x2b, 0x10, 0x23, 0x2e, 0xf4, 0xf0, 0x2e, 0xef, 0x20, 0x15,
    0x22, 0x2c, 0x29, 0x02, 0xdb, 0x31, 0x0a, 0xec, 0x0d, 0x10, 0xe4, 0x2f,
    0x03, 0x3a, 0x23, 0x0f, 0x16, 0x11, 0x19, 0xd9, 0xf0, 0xcf, 0x2e, 0xcd,
    0xce, 0xeb, 0xf3, 0x0f, 0x4a, 0xd8, 0x31, 0x14, 0xfb, 0x00, 0xfc, 0x03,
    0xf5, 0x09, 0x2f, 0x27, 0xd4, 0x02, 0x3a, 0x10, 0xfd, 0x01, 0xd9, 0xdc,
    0x26, 0xec, 0xd3, 0xfc, 0x04, 0x10, 0xe6, 0xfc, 0xf7, 0x06, 0x0f, 0x19,
    0xb5, 0xcf, 0xde, 0xd7, 0xc3, 0x09, 0x19, 0xc7, 0x3c, 0x26, 0xd3, 0x08,
    0x02, 0xe6, 0x07, 0xe2, 0x37, 0xdf, 0x3a, 0x07, 0x1b, 0x20, 0x08, 0x0c,
    0xe7, 0x21, 0xe2, 0x37, 0xdf, 0x19, 0x0a, 0xd3, 0xcf, 0x30, 0xd1, 0x26,
    0x24, 0x1a, 0xec, 0x19, 0x10, 0xe9, 0xf4, 0x23, 0xee, 0xe3, 0xd9, 0x37,
    0x2c, 0x13, 0xff, 0x18, 0x06, 0x14, 0x0e, 0x22, 0xf4, 0x01, 0x0e, 0x01,
    0xd0, 0x14, 0x0b, 0x27, 0x20, 0xee, 0x20, 0x22, 0x09, 0xfc, 0x0a, 0xe4,
    0x06, 0x1f, 0xfb, 0xf7, 0x0b, 0x22, 0x2d, 0x11, 0x13, 0xd9, 0xd3, 0xed,
    0x0e, 0xea, 0x12, 0xcd, 0x0e, 0xd2, 0xc3, 0x03, 0xe9, 0xe4, 0xf0, 0xd6,
    0xe9, 0xfa, 0xfc, 0xdd, 0x00, 0x1b, 0xe3, 0xd2, 0xe5, 0x06, 0xe7, 0x02,
    0x05, 0x17, 0x4b, 0x13, 0x32, 0xcf, 0xcc, 0x22, 0xfe, 0xf5, 0x14, 0x20,
    0x0b, 0x00, 0xfd, 0xec, 0xcf, 0xf8, 0xf9, 0x23, 0x23, 0x0a, 0x26, 0xbe,
    0xd8, 0x0c, 0x25, 0x30, 0xe3, 0x0c, 0xf8, 0x31, 0x07, 0x16, 0x0d, 0x1e,
    0xfd, 0x03, 0x1c, 0xfe, 0x30, 0xd6, 0xf3, 0x0c, 0x06, 0x1f, 0xf7, 0x31,
    0x02, 0xfe, 0xde, 0x16, 0x16, 0x18, 0xfc, 0xf1, 0x2c, 0xf1, 0x19, 0x23,
    0xe3, 0x13, 0x0a, 0x2e, 0x09, 0xd1, 0x1f, 0x2c, 0x0b, 0x1c, 0xd0, 0x07,
    0xd0, 0x0f, 0x1e, 0xc6, 0xd2, 0xe7, 0xf4, 0x1e, 0x00, 0xe3, 0x19, 0xca,
    0xff, 0x3b, 0xfb, 0xb5, 0xe1, 0x09, 0x36, 0xd8, 0xe0, 0x29, 0xe3, 0xfc,
    0x21, 0x00, 0x31, 0xc6, 0xe7, 0x2c, 0xea, 0x43, 0x25, 0x61, 0x34, 0x17,
    0x1f, 0x02, 0x13, 0xfa, 0xd5, 0x0f, 0x0d, 0x10, 0x0a, 0xff, 0xea, 0x1d,
    0x3e, 0x14, 0xee, 0xe0, 0xcc, 0xd6, 0xe1, 0x0e, 0x0f, 0x35, 0x22, 0x27,
    0x3b, 0xec, 0xf6, 0xed, 0x04, 0x2e, 0xee, 0xf6, 0x03, 0xd4, 0x1c, 0xdf,
    0x17, 0x1a, 0x1b, 0xd3, 0xf9, 0xc5, 0x0a, 0x2f, 0x09, 0x04, 0x17, 0x3c,
    0xde, 0x21, 0x27, 0x23, 0x36, 0x0f, 0x14, 0x38, 0xe8, 0xd1, 0xca, 0x06,
    0xb7, 0x07, 0xe2, 0xfb, 0xc6, 0xfe, 0x05, 0xd2, 0x29, 0xc3, 0xe8, 0x19,
    0xe7, 0xea, 0xdf, 0x1d, 0xfc, 0xdf, 0xdc, 0x43, 0x42, 0x41, 0xff, 0x25,
    0xfa, 0x15, 0x1d, 0xde, 0xcf, 0x24, 0xd4, 0x0c, 0x27, 0x0c, 0x1e, 0x00,
    0xcc, 0x14, 0x1b, 0xca, 0x1a, 0x39, 0x31, 0xff, 0x03, 0x47, 0x22, 0xd7,
    0x33, 0xd3, 0x2a, 0x2e, 0x05, 0x2b, 0x07, 0x0b, 0x20, 0x23, 0x1d, 0x15,
    0x1d, 0xde, 0xd9, 0x2d, 0xca, 0x1b, 0x08, 0x29, 0xc9, 0x06, 0xfe, 0x0a,
    0xe1, 0x0f, 0x20, 0xfb, 0xda, 0x16, 0x38, 0xd1, 0xdf, 0x18, 0x46, 0xfa,
    0xff, 0x08, 0x09, 0xd6, 0x2f, 0x01, 0x1e, 0x16, 0x09, 0xf8, 0x1f, 0x3c,
    0xf6, 0x2a, 0x0b, 0x29, 0x23, 0xf8, 0xf2, 0x04, 0x09, 0xe1, 0x20, 0x29,
    0x29, 0xf0, 0xe8, 0x25, 0x54, 0x03, 0x0f, 0x10, 0x29, 0xc9, 0xed, 0x08,
    0x00, 0x08, 0xd1, 0x2b, 0xe3, 0x03, 0x2b, 0xb8, 0x05, 0xcf, 0xdb, 0x27,
    0x01, 0x1e, 0x02, 0xe3, 0xdc, 0x39, 0x23, 0xf9, 0xeb, 0xee, 0x0d, 0xf0,
    0xdc, 0xdc, 0xd7, 0x06, 0x02, 0x29, 0xe2, 0x02, 0x09, 0x41, 0xda, 0xdf,
    0x24, 0xe9, 0x1e, 0xdb, 0xf2, 0xc9, 0xee, 0xf4, 0xd8, 0x2e, 0xf5, 0x3b,
    0x11, 0xf4, 0xfc, 0x2f, 0xea, 0xfe, 0xfd, 0xe7, 0x23, 0x2b, 0xdb, 0x0a,
    0x0b, 0xf3, 0xf4, 0x0c, 0xfa, 0xf2, 0xcb, 0xed, 0x0d, 0x03, 0xe7, 0x21,
    0x0c, 0xe7, 0xf7, 0x04, 0x10, 0x16, 0xc9, 0x0e, 0xe4, 0x1e, 0xd1, 0x2d,
    0xc7, 0xcf, 0xc6, 0x1c, 0xee, 0x07, 0x46, 0xe4, 0xe8, 0x1a, 0x15, 0x14,
    0x05, 0xd5, 0x15, 0x26, 0xe5, 0xea, 0x09, 0xcd, 0xd5, 0x3d, 0xd4, 0x00,
    0x00, 0x1e, 0x01, 0x23, 0x17, 0x2a, 0x18, 0xba, 0x23, 0x24, 0x34, 0xe3,
    0x04, 0x01, 0x14, 0xd0, 0x3d, 0xd7, 0xd7, 0x09, 0x2d, 0xe9, 0x16, 0x2a,
    0xf1, 0x25, 0xe6, 0x25, 0x18, 0xc9, 0x0b, 0xf8, 0x20, 0xf1, 0xe7, 0x09,
    0xd2, 0x10, 0x21, 0xd5, 0xf8, 0xec, 0xd5, 0x06, 0xf9, 0x2a, 0x28, 0x18,
    0x2d, 0x10, 0xd7, 0x04, 0xdd, 0x21, 0xf8, 0xfb, 0xf4, 0xfd, 0xf3, 0x10,
    0xbb, 0xf9, 0xe7, 0x18, 0x18, 0xd4, 0xf0, 0xfe, 0xe6, 0x02, 0x00, 0xd4,
    0x0a, 0x36, 0xf9, 0x24, 0x45, 0x32, 0x28, 0xcd, 0xdf, 0x1f, 0x0a, 0x13,
    0x12, 0x1e, 0x26, 0xde, 0xf0, 0x2a, 0x2a, 0x2e, 0x10, 0xf7, 0x17, 0x1e,
    0xef, 0x32, 0xf9, 0x38, 0x0c, 0xf3, 0x19, 0x22, 0xd0, 0x2b, 0xdb, 0xde,
    0x3c, 0xfc, 0x15, 0x12, 0xfd, 0x13, 0xf2, 0xef, 0x29, 0x3a, 0x1e, 0xe5,
    0xe8, 0x28, 0xec, 0x04, 0xec, 0xe7, 0x0f, 0x16, 0xd5, 0x0f, 0x23, 0x00,
    0x13, 0xdb, 0xe7, 0xd6, 0x04, 0x01, 0x14, 0x1f, 0x38, 0xec, 0x36, 0x1d,
    0xf1, 0xf4, 0xf9, 0xcb, 0xb5, 0x08, 0xde, 0xce, 0xf4, 0xee, 0xf5, 0x03,
    0x2f, 0xff, 0xf8, 0xfc, 0x13, 0xd9, 0x26, 0xf5, 0x0e, 0xf3, 0x0c, 0x0e,
    0x28, 0x0a, 0x22, 0x3e, 0xfd, 0x1b, 0x23, 0x21, 0x3e, 0x33, 0xf9, 0x3d,
    0xde, 0xd4, 0x22, 0x23, 0x16, 0x31, 0xd6, 0x0a, 0xe7, 0x34, 0x21, 0x2f,
    0x2b, 0x2d, 0xfc, 0xf7, 0xe0, 0x10, 0x0e, 0xd6, 0x0a, 0x16, 0x06, 0x1c,
    0x37, 0xce, 0x12, 0xd9, 0xee, 0xd1, 0x20, 0x04, 0x0c, 0xc6, 0xe5, 0xbb,
    0x05, 0xc6, 0xd9, 0x1e, 0x27, 0x1a, 0xdd, 0xef, 0x1b, 0x2c, 0xe4, 0x23,
    0xdc, 0xcf, 0xe8, 0x03, 0xda, 0x0d, 0x0f, 0x1e, 0x2d, 0xef, 0x0c, 0x1c,
    0x13, 0x22, 0xcb, 0x0b, 0xfa, 0xee, 0x05, 0xc6, 0xd2, 0xd7, 0xff, 0xcb,
    0x00, 0x21, 0x10, 0xce, 0x11, 0xfc, 0xfe, 0xdd, 0xe0, 0x45, 0x4b, 0x47,
    0x22, 0xb9, 0x08, 0x24, 0xf4, 0x35, 0x23, 0x30, 0x07, 0x2c, 0x32, 0x10,
    0xe4, 0x04, 0xcd, 0x48, 0x1f, 0x08, 0x14, 0x2b, 0x01, 0xee, 0x1c, 0x14,
    0x2f, 0x28, 0x34, 0x41, 0xea, 0x41, 0xd6, 0x16, 0x17, 0x08, 0x15, 0x1e,
    0x44, 0xf8, 0xfb, 0x19, 0x25, 0x3e, 0xdf, 0x1f, 0xdc, 0x34, 0x13, 0xfa,
    0xd4, 0xd5, 0xe5, 0xc1, 0xe0, 0xd6, 0xeb, 0x3b, 0xeb, 0xd3, 0xe5, 0x2b,
    0xdf, 0x0e, 0x2a, 0x31, 0x02, 0x24, 0x3f, 0xf6, 0xe3, 0xf4, 0xe0, 0xeb,
    0x00, 0x1d, 0x00, 0x23, 0xc1, 0x1d, 0xf1, 0xf9, 0x1d, 0x28, 0xe1, 0xd8,
    0x25, 0x06, 0xff, 0x1b, 0xe3, 0xc9, 0x11, 0x13, 0x12, 0xd7, 0x02, 0xe4,
    0xea, 0x27, 0xcd, 0x2b, 0x06, 0x1a, 0x13, 0x2e, 0xec, 0xfa, 0xf8, 0xd0,
    0x02, 0x25, 0x0a, 0x26, 0x0b, 0xd5, 0xe1, 0xee, 0x17, 0x2d, 0xec, 0x2f,
    0x1c, 0x19, 0x17, 0x0f, 0x1a, 0x21, 0xe0, 0x32, 0xe0, 0xff, 0x06, 0xfb,
    0x1f, 0xce, 0x24, 0x2f, 0xe2, 0x14, 0xe7, 0x22, 0xc9, 0x15, 0xd4, 0x1a,
    0xf4, 0xdd, 0xf6, 0xea, 0xd4, 0x0c, 0xcc, 0xeb, 0xfd, 0xd9, 0x01, 0x27,
    0x14, 0xd5, 0xec, 0x2d, 0x0a, 0x34, 0x49, 0xd3, 0x26, 0xfe, 0xf2, 0x5b,
    0x21, 0xcf, 0xe5, 0x2a, 0x5c, 0xf6, 0x04, 0xe6, 0xe4, 0xd6, 0xf6, 0x30,
    0xd5, 0x32, 0xd7, 0xfd, 0x1a, 0x26, 0x10, 0xed, 0x28, 0xe1, 0x0f, 0xf0,
    0xea, 0xd4, 0x28, 0xfa, 0xf6, 0xdc, 0xf7, 0x14, 0x1d, 0xf0, 0x10, 0x08,
    0xed, 0xce, 0x11, 0xe5, 0xe6, 0xea, 0x22, 0x06, 0x18, 0xec, 0xea, 0x09,
    0xfe, 0xe1, 0xe4, 0xec, 0x23, 0xeb, 0x1f, 0xe3, 0xf8, 0x22, 0x2f, 0xf1,
    0x09, 0xc9, 0xea, 0xd7, 0xe4, 0xfe, 0xff, 0x0d, 0x0a, 0x43, 0xdf, 0xfd,
    0x06, 0xfb, 0x19, 0x0a, 0xde, 0xd6, 0x1a, 0x08, 0xd8, 0xf0, 0xd2, 0x05,
    0xf6, 0x03, 0xfd, 0xf8, 0xdf, 0x41, 0xf4, 0xd9, 0xf2, 0xe8, 0x03, 0x06,
    0x07, 0x16, 0xfe, 0x03, 0xfe, 0xcd, 0xcd, 0x1a, 0xca, 0xd9, 0x0d, 0xdc,
    0x0f, 0xed, 0x0e, 0xd3, 0x15, 0xfa, 0xe0, 0xf1, 0x32, 0xe9, 0xed, 0xca,
    0xee, 0xe5, 0x18, 0x25, 0xfc, 0xfd, 0xe8, 0x33, 0xe0, 0xd6, 0xeb, 0x2c,
    0x25, 0x28, 0xfc, 0xee, 0xdc, 0xff, 0xde, 0x53, 0x2c, 0x28, 0xf7, 0xf2,
    0xfa, 0x2e, 0x06, 0x1e, 0xd0, 0xf7, 0x28, 0x0f, 0x1a, 0x34, 0x07, 0xe6,
    0xd8, 0xd0, 0xf9, 0x10, 0x37, 0xd6, 0xf9, 0xfb, 0xfd, 0x29, 0x19, 0xe7,
    0x0c, 0x3a, 0x2b, 0xef, 0xcc, 0x14, 0x1c, 0x23, 0x19, 0x22, 0x1d, 0x1f,
    0x2a, 0x00, 0xc4, 0x1e, 0x1b, 0xcc, 0x18, 0xc9, 0xe3, 0x0b, 0xce, 0xfd,
    0xda, 0x06, 0x26, 0xd4, 0x1e, 0xd1, 0x06, 0x06, 0x02, 0x24, 0xe3, 0xf9,
    0xc3, 0x31, 0x31, 0x04, 0x32, 0x07, 0x17, 0xec, 0x0a, 0x2d, 0x2c, 0x33,
    0x0c, 0x3a, 0x24, 0x28, 0x01, 0x2a, 0x0d, 0x2c, 0x11, 0xc7, 0xe9, 0xf4,
    0x2e, 0xc6, 0x01, 0x04, 0x2c, 0x27, 0x09, 0xcd, 0x19, 0x40, 0xee, 0x3a,
    0x25, 0xeb, 0x0e, 0xdf, 0x1b, 0xe3, 0x32, 0x32, 0x21, 0x15, 0x24, 0xcd,
    0x07, 0x0f, 0x15, 0x36, 0x09, 0x0c, 0x23, 0xca, 0x2b, 0x1e, 0x41, 0xf1,
    0xd4, 0xfc, 0x1f, 0x30, 0xe8, 0x30, 0x39, 0x32, 0xe4, 0x2e, 0x22, 0x08,
    0xec, 0xf7, 0xc4, 0x20, 0xd2, 0xe3, 0xd2, 0xe3, 0x09, 0xfa, 0x00, 0xc3,
    0x14, 0xdb, 0xc7, 0x44, 0xf4, 0x1f, 0x14, 0xda, 0x03, 0xc8, 0x27, 0x37,
    0xf6, 0x34, 0xd1, 0x03, 0xe8, 0xe9, 0xf0, 0xe2, 0x18, 0x0d, 0xfb, 0xf2,
    0x21, 0x00, 0x13, 0xdd, 0xef, 0xd0, 0x0b, 0x14, 0xd2, 0xe8, 0xef, 0xd2,
    0xd9, 0xeb, 0xff, 0x2a, 0xe9, 0xd3, 0x1e, 0x0c, 0x01, 0x1d, 0xf5, 0xe1,
    0x27, 0xd3, 0xfa, 0x05, 0xdd, 0xea, 0xfe, 0x11, 0x1e, 0x0d, 0xfe, 0x0d,
    0x0d, 0x0b, 0xe3, 0xf4, 0x14, 0x2c, 0x04, 0xe8, 0xff, 0x35, 0x32, 0x28,
    0xfb, 0xf2, 0xe6, 0x02, 0x1b, 0xf3, 0xd1, 0xe9, 0xe6, 0x30, 0xc6, 0xcd,
    0x05, 0xfd, 0xbf, 0xea, 0xc7, 0x0a, 0x18, 0xfe, 0xce, 0xcb, 0x2b, 0xf7,
    0xfd, 0x06, 0xe3, 0xe3, 0x30, 0xfa, 0x1b, 0x01, 0x10, 0x0e, 0x2c, 0x3b,
    0x10, 0x3d, 0x27, 0x01, 0xfb, 0x2a, 0x2d, 0x29, 0x43, 0x05, 0xf4, 0x27,
    0x0b, 0x33, 0xd3, 0x3b, 0xef, 0x14, 0x11, 0x27, 0x14, 0xe0, 0xdc, 0x11,
    0x1f, 0x15, 0x05, 0x31, 0xfc, 0xdd, 0x21, 0xde, 0x05, 0x11, 0xd8, 0x40,
    0x09, 0xea, 0xfd, 0xd7, 0x41, 0xdf, 0xf5, 0xf9, 0xe3, 0x08, 0xee, 0x1f,
    0x1e, 0x06, 0xf4, 0xd7, 0x30, 0x0b, 0xf9, 0xd8, 0xf3, 0x18, 0xd3, 0xdf,
    0xd5, 0xdd, 0x1c, 0x02, 0x10, 0xe2, 0x13, 0x29, 0xc3, 0xd8, 0x11, 0xeb,
    0xfe, 0xd7, 0xf8, 0x2d, 0x05, 0xf7, 0x03, 0xf9, 0x0e, 0xe5, 0xff, 0x2b,
    0x01, 0xca, 0xe3, 0x17, 0xee, 0xd6, 0xe1, 0x0d, 0xe5, 0x04, 0x2b, 0xe4,
    0xe1, 0xcf, 0x19, 0x0a, 0x09, 0x21, 0x1f, 0x2b, 0xe3, 0x32, 0x06, 0x05,
    0xd8, 0x20, 0x21, 0x31, 0xe9, 0xde, 0xf8, 0x28, 0xdb, 0xf3, 0x27, 0x1f,
    0x2b, 0x30, 0xf3, 0x2a, 0x04, 0x13, 0x3c, 0xdf, 0x2b, 0x2f, 0x33, 0x09,
    0x2a, 0x12, 0x2d, 0x4f, 0x08, 0x1a, 0x0f, 0x13, 0xf9, 0x03, 0x26, 0xeb,
    0x2c, 0xbf, 0x22, 0x1c, 0x15, 0x1f, 0xe7, 0x17, 0xe8, 0xee, 0xe6, 0xf0,
    0x3d, 0x1b, 0xf8, 0xfc, 0x25, 0x03, 0xeb, 0x11, 0xd0, 0xd6, 0xcc, 0xfe,
    0xf7, 0xff, 0x1b, 0xd9, 0xd2, 0x13, 0xdb, 0xf7, 0x08, 0xf1, 0x10, 0x0a,
    0x1f, 0xe0, 0xc8, 0xde, 0xba, 0x1f, 0xdb, 0xda, 0x29, 0x06, 0x20, 0xeb,
    0xfc, 0x36, 0x14, 0x36, 0xf8, 0x30, 0x31, 0xf8, 0x19, 0x1c, 0x25, 0xf9,
    0x04, 0xe8, 0xd2, 0x31, 0xed, 0x0f, 0x07, 0x0b, 0x3c, 0x0a, 0xdb, 0x39,
    0xdc, 0x36, 0xe8, 0x04, 0xf4, 0x0c, 0x14, 0x03, 0x3b, 0xdc, 0x30, 0x01,
    0xe6, 0x32, 0xd6, 0xcf, 0xe1, 0x1a, 0x25, 0x19, 0x19, 0x1f, 0xdf, 0xee,
    0x04, 0xee, 0xd7, 0x17, 0x29, 0x19, 0xe4, 0xe7, 0x07, 0x23, 0xcf, 0x13,
    0xe0, 0x11, 0x3d, 0x1b, 0xd2, 0xdd, 0xfd, 0xc2, 0xec, 0xf9, 0xda, 0x45,
    0x06, 0x1f, 0xcb, 0xe5, 0xf6, 0x07, 0xd1, 0xf6, 0xcc, 0xd7, 0xfe, 0x24,
    0xd9, 0xe3, 0xf3, 0xeb, 0x26, 0xf8, 0xff, 0xfc, 0x32, 0x1f, 0x06, 0x15,
    0xcf, 0xdb, 0xe2, 0x2e, 0xfb, 0x11, 0x2d, 0xe6, 0xe1, 0x11, 0xe7, 0xda,
    0xd5, 0x15, 0x17, 0xd8, 0xf9, 0x0a, 0x2d, 0x30, 0x18, 0xf9, 0xeb, 0x1f,
    0xe4, 0xcc, 0x30, 0x38, 0x34, 0x34, 0x33, 0xf5, 0x30, 0x08, 0x2d, 0xef,
    0xd1, 0xfe, 0xe9, 0xd5, 0xf0, 0x02, 0x32, 0x28, 0x1c, 0xf9, 0xd6, 0xe6,
    0xf1, 0x27, 0x0c, 0xe9, 0x1b, 0xd8, 0x30, 0x02, 0x0d, 0x23, 0x23, 0x24,
    0x0a, 0x2d, 0xe4, 0xfd, 0xd1, 0x1d, 0xbe, 0xf4, 0xe6, 0x21, 0x0d, 0xe7,
    0xb2, 0x0b, 0x12, 0xe0, 0xd3, 0xfa, 0xe7, 0xfb, 0x2a, 0xe7, 0xde, 0xe0,
    0xc6, 0x40, 0x2d, 0x0e, 0xfe, 0xc5, 0x16, 0xff, 0xf1, 0x39, 0x0e, 0x06,
    0xf8, 0x27, 0x31, 0x03, 0x2a, 0xf0, 0x40, 0x43, 0x2e, 0xe7, 0xcd, 0x11,
    0x12, 0xc6, 0x0c, 0x03, 0xe1, 0x31, 0x1e, 0x2c, 0x25, 0x07, 0x0b, 0x30,
    0x3e, 0x1b, 0x42, 0xdc, 0x39, 0x37, 0x1d, 0x24, 0x4f, 0x0a, 0x02, 0xbc,
    0x0c, 0x29, 0x08, 0x2f, 0x2d, 0x04, 0x0f, 0x04, 0x13, 0x1c, 0x1b, 0x2a,
    0x03, 0x21, 0x1c, 0xdb, 0xcd, 0x14, 0x2d, 0x0a, 0x11, 0x30, 0x26, 0xe5,
    0xd7, 0xfd, 0xd0, 0x0d, 0xdf, 0x08, 0xcd, 0x36, 0xd0, 0xe9, 0xe1, 0xc7,
    0xd6, 0xe3, 0xeb, 0x02, 0xd4, 0xc3, 0x2b, 0xe3, 0x15, 0xf6, 0x03, 0x20,
    0x05, 0x3d, 0x50, 0x35, 0x3b, 0x1b, 0x1f, 0x11, 0xf0, 0x3e, 0x34, 0x07,
    0x2f, 0x1d, 0x12, 0x16, 0x1b, 0x03, 0xe7, 0x3d, 0xd9, 0x0d, 0x10, 0x24,
    0x05, 0x19, 0x28, 0x31, 0xfe, 0x1b, 0x24, 0x06, 0x00, 0x08, 0x07, 0xfb,
    0x21, 0x04, 0x3c, 0xf9, 0x3a, 0x23, 0x0a, 0xfd, 0xfd, 0xde, 0xfe, 0x06,
    0xd4, 0x05, 0x18, 0x09, 0xe6, 0x19, 0xcd, 0x06, 0xdf, 0xdf, 0x23, 0xf9,
    0xd0, 0x1f, 0xf6, 0x25, 0x3c, 0x05, 0x1d, 0xf4, 0xd2, 0x0f, 0x08, 0xe1,
    0xcc, 0x02, 0xf5, 0xcd, 0x14, 0xe8, 0xea, 0xce, 0x0c, 0xec, 0x09, 0xce,
    0x0a, 0x1f, 0xed, 0xdb, 0x3f, 0xf9, 0x11, 0xfe, 0x17, 0x09, 0x0e, 0x1d,
    0x34, 0xf8, 0x2b, 0x1d, 0x3c, 0x21, 0xe3, 0x28, 0xd9, 0xdc, 0x37, 0xed,
    0x21, 0x0d, 0x31, 0xed, 0xd3, 0x1b, 0xf7, 0xe7, 0x3a, 0x36, 0x1f, 0x19,
    0xd4, 0xd4, 0x23, 0x17, 0xf4, 0x31, 0xd9, 0x3d, 0x0c, 0x2b, 0x20, 0x19,
    0x12, 0x20, 0x00, 0x17, 0x10, 0x4d, 0x12, 0xd4, 0x03, 0x22, 0xd2, 0x2a,
    0xc8, 0xed, 0xe0, 0x07, 0x2f, 0xed, 0x3c, 0x1b, 0x1f, 0x0c, 0xee, 0x0b,
    0x0e, 0x1c, 0x3f, 0xe7, 0x15, 0xe1, 0x1f, 0xfd, 0xbc, 0xff, 0xe4, 0xe9,
    0xda, 0xfb, 0x05, 0xdf, 0xc2, 0xf1, 0x01, 0xbd, 0x05, 0xb4, 0xec, 0xe1,
    0xd9, 0xf2, 0xd8, 0xb7, 0x12, 0xfb, 0xc4, 0x1a, 0x26, 0x1f, 0x13, 0xcc,
    0x08, 0xef, 0xff, 0x2d, 0x2a, 0xfe, 0xf7, 0x26, 0x15, 0xf8, 0x0c, 0x23,
    0x3a, 0x34, 0xe1, 0xe6, 0xf3, 0x29, 0x38, 0x30, 0xfa, 0x07, 0x4d, 0x21,
    0x2d, 0x02, 0x14, 0xcd, 0x02, 0x32, 0xdf, 0x0b, 0x32, 0xe0, 0xcf, 0x0c,
    0xe4, 0xe5, 0x3f, 0xe0, 0xd2, 0x08, 0xde, 0x0a, 0x1c, 0x31, 0x16, 0xe1,
    0xcc, 0x3b, 0x35, 0xf4, 0x44, 0x24, 0xe6, 0xf6, 0xee, 0x00, 0xe6, 0x33,
    0x41, 0xec, 0x10, 0xd4, 0xfa, 0x1f, 0xfc, 0xe1, 0xdc, 0xeb, 0xcd, 0xcb,
    0xd8, 0xf2, 0xea, 0x11, 0xd4, 0xec, 0x0a, 0xb7, 0xfd, 0x11, 0xfb, 0x1b,
    0x1d, 0xf0, 0xe6, 0xed, 0xe7, 0x23, 0x35, 0x01, 0x35, 0x08, 0x08, 0xf9,
    0x0c, 0x11, 0x4a, 0x1a, 0x39, 0xff, 0xee, 0x28, 0x23, 0xd0, 0x1a, 0x0e,
    0x0d, 0xcd, 0xf0, 0xf0, 0x31, 0xee, 0x13, 0x25, 0xfd, 0xc9, 0xf0, 0xee,
    0xdb, 0x24, 0xec, 0x05, 0x3d, 0x15, 0x16, 0x1c, 0x2a, 0x0e, 0x13, 0xd3,
    0x07, 0x37, 0xed, 0xf2, 0x18, 0x35, 0x14, 0xc5, 0xef, 0xf1, 0xfb, 0x0f,
    0xe8, 0x0b, 0x46, 0xf1, 0x13, 0x0d, 0xe7, 0xd3, 0x2e, 0x05, 0x1c, 0x16,
    0x13, 0x27, 0x2a, 0x3d, 0xd9, 0xc6, 0xed, 0xcc, 0x17, 0x09, 0xfe, 0x08,
    0xd9, 0x09, 0xc5, 0xcb, 0x31, 0xe0, 0x00, 0x00, 0x1a, 0xcd, 0xf3, 0x1c,
    0x36, 0xc9, 0xdb, 0x41, 0x3e, 0x40, 0xdc, 0x35, 0x11, 0xcd, 0xea, 0x0f,
    0x3c, 0x2f, 0x17, 0xe9, 0x09, 0x27, 0x16, 0x3d, 0x13, 0x04, 0xd0, 0xdc,
    0x0c, 0x15, 0xee, 0xfd, 0xe4, 0x3d, 0x42, 0x31, 0x05, 0x1e, 0xd8, 0x35,
    0x27, 0x29, 0xe4, 0x2b, 0x38, 0x34, 0x2c, 0x20, 0xe1, 0x1a, 0x37, 0x3b,
    0xde, 0xfe, 0x11, 0x09, 0xe5, 0x0e, 0x0e, 0x19, 0xdc, 0xd8, 0x14, 0x1d,
    0x1b, 0xe6, 0x27, 0xfb, 0xf0, 0xdd, 0x1e, 0x19, 0x18, 0xfa, 0x02, 0x21,
    0x0f, 0x12, 0xff, 0xd2, 0xc3, 0xd8, 0xe1, 0x0c, 0xfb, 0x1b, 0xb3, 0x0d,
    0xe6, 0xc0, 0x03, 0x0c, 0xcb, 0x1b, 0xe4, 0xf7, 0x30, 0x23, 0xec, 0xc4,
    0xe0, 0xe3, 0xed, 0x1c, 0x2e, 0x28, 0xd5, 0xff, 0x21, 0x30, 0xee, 0xda,
    0x3c, 0x1d, 0x18, 0xbd, 0xec, 0x07, 0x04, 0x10, 0xdc, 0x04, 0x03, 0x14,
    0x3f, 0xcd, 0x24, 0x37, 0x16, 0x31, 0x32, 0x11, 0xf5, 0x08, 0x26, 0xfb,
    0x0d, 0x00, 0x07, 0x1c, 0x39, 0x32, 0x41, 0xdb, 0xd6, 0x0a, 0xdf, 0x2b,
    0xfb, 0xfb, 0xc9, 0x1b, 0x27, 0xc8, 0x0c, 0xd1, 0xf7, 0x1b, 0x06, 0x1f,
    0x24, 0xe6, 0x15, 0x0b, 0xd4, 0x34, 0x32, 0x1c, 0x0e, 0xd5, 0x3f, 0x2b,
    0xcc, 0xff, 0xe7, 0x17, 0xcd, 0xcd, 0xf4, 0xcf, 0xd0, 0xea, 0xf1, 0xec,
    0x27, 0xb7, 0xfb, 0x20, 0xf1, 0xc6, 0x29, 0x0e, 0x3d, 0xcf, 0xdc, 0x1d,
    0x1f, 0xee, 0x20, 0x1e, 0x05, 0x1c, 0x12, 0x2a, 0x0a, 0xd4, 0x09, 0x4b,
    0xdc, 0x26, 0x0e, 0xe9, 0xcd, 0xfe, 0xcf, 0x16, 0xda, 0xee, 0x3b, 0x15,
    0x31, 0x25, 0x42, 0xf6, 0x0b, 0xcc, 0xd6, 0x06, 0x0b, 0x0e, 0x17, 0x34,
    0x3d, 0x0a, 0x23, 0xdd, 0xf4, 0xec, 0x3a, 0x1d, 0x16, 0x25, 0xe3, 0x12,
    0x1c, 0x13, 0xc9, 0xc7, 0x05, 0x2e, 0x16, 0x0e, 0x03, 0xe5, 0x34, 0x0d,
    0x02, 0x3c, 0xf6, 0x11, 0xf4, 0x01, 0x32, 0x2d, 0xe2, 0x1d, 0x65, 0xb7,
    0x36, 0x0d, 0x0d, 0xf9, 0xfd, 0xf3, 0x3c, 0x06, 0x66, 0x1e, 0x26, 0xf5,
    0xf6, 0xfd, 0xe9, 0xec, 0xd2, 0xcc, 0x09, 0xf4, 0x48, 0x1f, 0xdd, 0x1a,
    0xe4, 0x1b, 0x17, 0xd7, 0x25, 0xdd, 0xde, 0x10, 0x03, 0xf4, 0xef, 0xe8,
    0x18, 0xba, 0x25, 0xf6, 0xd1, 0x04, 0x23, 0xf6, 0x09, 0x0a, 0x1d, 0x11,
    0xef, 0x04, 0xfc, 0x0c, 0xec, 0xe0, 0xe6, 0x2e, 0xf4, 0xdc, 0xd1, 0x1c,
    0x14, 0xf3, 0xdf, 0xe5, 0x0e, 0xf7, 0x0c, 0xbd, 0x40, 0x04, 0x17, 0x18,
    0x24, 0x10, 0xcc, 0x15, 0xd3, 0x16, 0xe1, 0xe2, 0xd7, 0xec, 0xf9, 0x39,
    0x20, 0xea, 0xcd, 0xef, 0x19, 0x17, 0xd2, 0x04, 0xd6, 0xd3, 0xda, 0xfc,
    0x01, 0xf3, 0xcc, 0xd5, 0xd8, 0xc7, 0xf5, 0xf1, 0x19, 0xf1, 0x03, 0xe6,
    0xca, 0x0a, 0x3f, 0xdf, 0xcc, 0xc1, 0xd3, 0x34, 0x37, 0x4a, 0x23, 0xdb,
    0xf4, 0x11, 0x2c, 0x36, 0x03, 0x46, 0xc2, 0x54, 0xdc, 0xfa, 0x04, 0xfe,
    0xcf, 0x34, 0xea, 0xef, 0x19, 0x29, 0xf6, 0x20, 0x15, 0x22, 0x13, 0xf9,
    0x29, 0x02, 0xdf, 0x18, 0xe6, 0x2e, 0x50, 0x1f, 0x0e, 0x2d, 0x27, 0xfb,
    0x31, 0xf3, 0x4e, 0x1e, 0xf1, 0x23, 0xdb, 0xc0, 0x06, 0x1a, 0x04, 0x17,
    0x0d, 0x22, 0xf5, 0x01, 0xf8, 0x19, 0xeb, 0x15, 0xdc, 0xd7, 0x22, 0x2b,
    0x3f, 0xe8, 0xef, 0xcf, 0x47, 0xee, 0xf4, 0x3b, 0x17, 0xe1, 0x15, 0xf8,
    0x09, 0xfd, 0xda, 0x08, 0x0c, 0x25, 0xe9, 0xce, 0xcd, 0x2c, 0xe8, 0xe3,
    0x07, 0xc4, 0xea, 0x0b, 0xd2, 0x41, 0xe1, 0xea, 0xde, 0x0f, 0xd7, 0x17,
    0xf6, 0xdd, 0xfd, 0xfc, 0xf0, 0x1b, 0xfd, 0xf1, 0x25, 0xfc, 0x23, 0x30,
    0x00, 0x07, 0x05, 0x14, 0x10, 0xfb, 0xf7, 0x37, 0xe5, 0x39, 0xcc, 0xce,
    0xf0, 0x20, 0xd9, 0x2c, 0x2f, 0xfa, 0x09, 0xd3, 0x03, 0x07, 0xf3, 0xd7,
    0x36, 0xe4, 0x25, 0x15, 0x24, 0xeb, 0xeb, 0x2a, 0xde, 0xeb, 0xcc, 0xfb,
    0xeb, 0xef, 0x3b, 0x08, 0x29, 0xd0, 0xf8, 0xfb, 0xe6, 0xf2, 0xf1, 0xd3,
    0xde, 0xe4, 0x33, 0x2a, 0x0f, 0x03, 0x1f, 0xff, 0xc9, 0xcc, 0xf9, 0xf9,
    0xb9, 0x0c, 0xe6, 0xc7, 0x1c, 0x03, 0x27, 0x05, 0xe1, 0xec, 0xf8, 0x0e,
    0x14, 0x02, 0x18, 0xfd, 0xda, 0x00, 0x47, 0x20, 0xdc, 0xd1, 0x0e, 0x1a,
    0x08, 0xf1, 0x32, 0x38, 0xe9, 0x31, 0xe9, 0x11, 0x16, 0x09, 0x01, 0xef,
    0xd8, 0x19, 0x07, 0x29, 0xce, 0xee, 0xfa, 0xf5, 0x2a, 0xf2, 0xdf, 0x1a,
    0x0a, 0x1e, 0x0c, 0x1a, 0x04, 0x2d, 0xd9, 0x09, 0xe1, 0xcb, 0x4d, 0x24,
    0xd5, 0x11, 0x1b, 0xc0, 0xfe, 0xf8, 0x1e, 0xc8, 0xe4, 0xca, 0xff, 0xc7,
    0x32, 0x0b, 0x30, 0x26, 0xf3, 0xec, 0xe8, 0xcb, 0xf2, 0xe5, 0xd2, 0xde,
    0x2b, 0x45, 0xd0, 0xd8, 0xde, 0x33, 0xd1, 0xe0, 0xe7, 0x21, 0xf5, 0x0b,
    0x27, 0x2b, 0x25, 0xe0, 0x3d, 0x0c, 0xde, 0xeb, 0x2f, 0xeb, 0xe2, 0xe4,
    0x1e, 0xe0, 0x10, 0xe2, 0x0a, 0xff, 0x26, 0x1a, 0xe1, 0xfa, 0x00, 0xdb,
    0xfc, 0x1b, 0x2c, 0xe1, 0x0c, 0xf0, 0xf6, 0x0f, 0x1c, 0xe8, 0x25, 0x31,
    0x0e, 0xdd, 0x27, 0x31, 0x30, 0x35, 0xfb, 0x1c, 0x24, 0xfa, 0xfa, 0xed,
    0x2e, 0xec, 0xed, 0x13, 0xfa, 0xfd, 0x00, 0x22, 0xf3, 0xea, 0x08, 0x1f,
    0x29, 0xce, 0x02, 0x10, 0x0a, 0x30, 0x17, 0x00, 0x13, 0xfb, 0x0e, 0x1e,
    0xe0, 0x01, 0xe6, 0xfe, 0x14, 0x1a, 0x1b, 0xff, 0xd0, 0xeb, 0x25, 0xcb,
    0x1b, 0x0e, 0xc2, 0x19, 0xf4, 0xfd, 0xd4, 0xf4, 0xfa, 0xfd, 0xe5, 0xfa,
    0x0e, 0x12, 0x11, 0xf2, 0xe7, 0x25, 0x13, 0x2e, 0xe4, 0xfb, 0xf9, 0xe1,
    0xf9, 0x30, 0x38, 0xe1, 0xdd, 0x14, 0xff, 0xdc, 0x28, 0x0f, 0xd3, 0x23,
    0xf6, 0xba, 0xe8, 0xe2, 0x40, 0x48, 0xc5, 0x19, 0x26, 0x26, 0x02, 0xfb,
    0x1f, 0xd1, 0x10, 0x00, 0xec, 0x2f, 0xcd, 0x1f, 0xde, 0x37, 0x37, 0xe9,
    0x3d, 0x06, 0x38, 0xe5, 0xd2, 0xf6, 0xfb, 0x03, 0x19, 0x05, 0x07, 0x33,
    0xe6, 0xd4, 0x11, 0x03, 0xf9, 0xbc, 0x21, 0x18, 0x27, 0x13, 0xd4, 0xf1,
    0xe4, 0xeb, 0xe6, 0xea, 0x32, 0x1d, 0xdb, 0x2e, 0xda, 0x07, 0xcf, 0x04,
    0xfc, 0x0f, 0xd1, 0xd5, 0xee, 0x15, 0xc1, 0x03, 0xe7, 0xd1, 0x2b, 0xe1,
    0x0c, 0xe1, 0xfe, 0xd7, 0x02, 0x0d, 0x24, 0xf4, 0xe9, 0x43, 0x20, 0x2c,
    0x3d, 0xf2, 0x2d, 0xca, 0xd0, 0x1e, 0x15, 0xde, 0x1f, 0x33, 0x15, 0x18,
    0x0c, 0xff, 0x0b, 0x5d, 0xb9, 0x2b, 0x20, 0x01, 0x2b, 0x21, 0xfe, 0x27,
    0x38, 0xd8, 0x34, 0x41, 0xfd, 0x01, 0x2e, 0x39, 0x41, 0x2e, 0x15, 0x2c,
    0x36, 0xf6, 0x42, 0x2f, 0xd3, 0x32, 0xd8, 0x1d, 0x1c, 0x18, 0xf2, 0x0e,
    0xf7, 0xe1, 0xcb, 0x0c, 0x21, 0x1a, 0xe6, 0x39, 0xde, 0xed, 0xd2, 0x1c,
    0x12, 0xd5, 0x15, 0xf1, 0x39, 0xf9, 0xfb, 0x39, 0xf4, 0x1e, 0xed, 0x1d,
    0x0d, 0x12, 0xd1, 0x14, 0xf6, 0xf4, 0xd3, 0x16, 0xe9, 0xda, 0xbe, 0x07,
    0x11, 0x00, 0x33, 0x09, 0x13, 0xb8, 0xb4, 0x32, 0x2e, 0x3c, 0x2d, 0xf2,
    0xfb, 0x1e, 0xe4, 0xf4, 0x21, 0x00, 0x35, 0xda, 0xfc, 0xf0, 0x14, 0xd4,
    0xda, 0x2c, 0x15, 0xc1, 0x32, 0x3b, 0x2b, 0x26, 0xd7, 0x31, 0x1d, 0x19,
    0x01, 0x39, 0xec, 0xe1, 0x1f, 0xfd, 0x32, 0x05, 0xd6, 0x32, 0xd1, 0x0d,
    0xd2, 0x34, 0x33, 0x4c, 0xe6, 0x15, 0xeb, 0x1f, 0xe9, 0xec, 0xc6, 0xde,
    0xd6, 0x0d, 0x2a, 0xf0, 0xff, 0xe5, 0x24, 0x00, 0x0c, 0xea, 0x24, 0xf9,
    0x17, 0xe0, 0x39, 0x18, 0x27, 0x02, 0xef, 0xc5, 0xd4, 0xf5, 0x0f, 0xfd,
    0xe4, 0x13, 0xb6, 0xec, 0x0a, 0xe1, 0x17, 0xd5, 0xe0, 0x1a, 0xfe, 0x09,
    0x25, 0x17, 0xd7, 0x11, 0x0a, 0x30, 0x31, 0x1f, 0x3a, 0x38, 0xfb, 0xf8,
    0xf5, 0x1b, 0x22, 0x3d, 0x25, 0x12, 0xe8, 0x3f, 0x0a, 0xcb, 0xfb, 0x09,
    0xd7, 0x11, 0xd3, 0x2c, 0xf0, 0xef, 0xef, 0x38, 0x0b, 0x04, 0xd8, 0x38,
    0xdc, 0x11, 0xde, 0x2a, 0xf9, 0xf4, 0x34, 0x3f, 0xf3, 0xf2, 0x2b, 0xe0,
    0x13, 0xf7, 0xca, 0x17, 0xf8, 0x0e, 0xef, 0x0a, 0x03, 0xe9, 0xd9, 0x1f,
    0xf8, 0xe0, 0xfd, 0x31, 0x23, 0xce, 0xf7, 0xff, 0xf7, 0x10, 0x13, 0xcc,
    0x22, 0xfc, 0x00, 0x3d, 0xcf, 0xc5, 0xf4, 0xda, 0xe0, 0x00, 0x02, 0xd0,
    0xdc, 0x04, 0x18, 0xf5, 0x12, 0x16, 0x08, 0xf5, 0xf1, 0xc5, 0xe4, 0x21,
    0xe0, 0x0c, 0xf4, 0x19, 0x3d, 0x30, 0x35, 0x31, 0x36, 0xba, 0xef, 0xe4,
    0xfb, 0xff, 0x36, 0x11, 0x11, 0x24, 0xdc, 0x3a, 0xd5, 0x09, 0xc6, 0x2c,
    0xde, 0xf2, 0x33, 0x10, 0x05, 0x15, 0x31, 0x28, 0xea, 0xdd, 0x30, 0x36,
    0xe1, 0x0c, 0xf0, 0xfb, 0x1b, 0x3a, 0x0c, 0xd6, 0x29, 0x24, 0x22, 0x38,
    0x27, 0xec, 0xf0, 0x10, 0xd0, 0xbe, 0x11, 0xdd, 0xdb, 0x22, 0xe0, 0xf8,
    0x08, 0x1e, 0xe9, 0xd3, 0x04, 0x3f, 0xf7, 0x12, 0x30, 0x20, 0xfc, 0x0d,
    0x34, 0xd3, 0xc6, 0x0c, 0xc8, 0xf0, 0xd3, 0xcb, 0xd8, 0xdb, 0x0a, 0x19,
    0x1c, 0xe1, 0x1f, 0xef, 0x16, 0xeb, 0xeb, 0xcf, 0x12, 0xce, 0x0d, 0xf0,
    0xfb, 0x1e, 0xf0, 0x0e, 0xfd, 0x04, 0x0d, 0xfb, 0x2b, 0x02, 0x3e, 0x3b,
    0x36, 0x39, 0x25, 0x23, 0xcd, 0xe1, 0xdb, 0xeb, 0x1f, 0xe3, 0x14, 0xe0,
    0xe6, 0xf5, 0x1f, 0x36, 0x32, 0x04, 0xd5, 0xd9, 0x17, 0x0c, 0x13, 0x01,
    0xcc, 0x13, 0xcd, 0xd2, 0xf9, 0x14, 0xe7, 0xf9, 0xe3, 0xe0, 0xfb, 0x18,
    0xd7, 0xde, 0x29, 0xd8, 0xd5, 0x11, 0xdd, 0x3e, 0xef, 0xf6, 0x01, 0xec,
    0xf8, 0xe5, 0x1c, 0x24, 0xda, 0x0f, 0xf7, 0xee, 0x41, 0xfc, 0xf4, 0x2e,
    0xf2, 0x38, 0xe2, 0xdb, 0xe1, 0xdd, 0xea, 0x06, 0xfe, 0x20, 0xdd, 0xec,
    0x08, 0xfb, 0x00, 0xf1, 0xd9, 0x08, 0xf2, 0xe7, 0xcd, 0x12, 0xd7, 0x4e,
    0x09, 0x1e, 0x1b, 0x03, 0xfa, 0x2a, 0x29, 0x39, 0xea, 0x06, 0x01, 0x25,
    0xe1, 0xec, 0x1e, 0xff, 0x13, 0xef, 0x1a, 0x0f, 0x29, 0x0e, 0x18, 0x0b,
    0x23, 0x04, 0xf8, 0xba, 0x1f, 0xf5, 0x0c, 0xfb, 0x2f, 0xd9, 0x07, 0x1b,
    0x28, 0xf8, 0x28, 0x26, 0x35, 0xf6, 0x4a, 0x39, 0xf1, 0x0c, 0xde, 0xfe,
    0xef, 0x28, 0x04, 0xf5, 0xcc, 0xd4, 0xff, 0x07, 0xf0, 0x10, 0xef, 0x1a,
    0x16, 0xf9, 0x26, 0x0b, 0xda, 0x03, 0x01, 0xff, 0x26, 0x1d, 0xc1, 0x21,
    0xe7, 0xde, 0xd8, 0xfa, 0xd0, 0x26, 0xe5, 0x00, 0xc7, 0xe6, 0x07, 0x00,
    0xd5, 0xe5, 0xe4, 0xe0, 0x2b, 0xbf, 0x23, 0xe9, 0x06, 0x2e, 0x08, 0x23,
    0x31, 0x1f, 0x05, 0xfb, 0x0a, 0x1c, 0x29, 0x0f, 0xff, 0xe8, 0xf1, 0xbd,
    0x1e, 0xf8, 0x14, 0x05, 0xd5, 0x13, 0xe5, 0x1b, 0x2d, 0x31, 0x25, 0xfb,
    0xfd, 0x16, 0xef, 0x12, 0x2a, 0x14, 0xfa, 0x15, 0x11, 0xdd, 0x0b, 0x34,
    0xe5, 0x19, 0x12, 0xff, 0xfe, 0xdc, 0x12, 0xe2, 0xea, 0x30, 0xe2, 0x39,
    0x1b, 0xdb, 0x0b, 0x2d, 0xfc, 0x0c, 0x34, 0xf9, 0x1d, 0x22, 0x03, 0x10,
    0x1c, 0x22, 0x36, 0xf9, 0x3f, 0x04, 0x2f, 0x3e, 0xfd, 0x18, 0xe7, 0xff,
    0xfa, 0xd3, 0x01, 0x16, 0xde, 0xfb, 0x17, 0x06, 0xda, 0x02, 0xf8, 0x19,
    0x07, 0xec, 0x0e, 0x01, 0xef, 0x09, 0xdf, 0xe3, 0xe9, 0x31, 0x14, 0x0e,
    0xd2, 0x19, 0x07, 0xfe, 0xe0, 0xde, 0x15, 0xf2, 0xcd, 0xf6, 0xd0, 0x13,
    0x2b, 0x1e, 0xcc, 0x06, 0xf3, 0x2f, 0xd1, 0x03, 0xeb, 0xe1, 0x31, 0x22,
    0xe1, 0x01, 0xfe, 0xd8, 0xf1, 0x00, 0xf9, 0xf2, 0xe7, 0xf6, 0xcf, 0xea,
    0x32, 0x2c, 0x2b, 0xf2, 0xe4, 0xf9, 0xd1, 0x0a, 0xcf, 0x0a, 0xd6, 0xfd,
    0xde, 0x08, 0x16, 0x25, 0xf8, 0x2d, 0xff, 0x29, 0xee, 0x2c, 0xf3, 0xce,
    0xe1, 0xd9, 0x0d, 0x03, 0xf1, 0x00, 0xdb, 0xd0, 0x17, 0xd9, 0xbe, 0xf5,
    0xbc, 0xe2, 0x0d, 0xd8, 0xd0, 0x09, 0x2a, 0xde, 0x1a, 0x0b, 0xe3, 0x24,
    0xfc, 0xd6, 0xe8, 0xf4, 0x0b, 0x02, 0x49, 0xfd, 0x33, 0x01, 0x19, 0x1f,
    0x10, 0x2d, 0x15, 0x1f, 0x03, 0x2d, 0x01, 0x06, 0xcb, 0xd0, 0x40, 0xd6,
    0x1a, 0x09, 0xec, 0x3d, 0xf9, 0xe1, 0x17, 0x3b, 0xf3, 0x4b, 0xd3, 0xdd,
    0xd9, 0x2d, 0xf1, 0x1b, 0x2c, 0xfe, 0x25, 0xe0, 0x31, 0x19, 0x29, 0xea,
    0x44, 0x0a, 0xd3, 0xd1, 0xe8, 0x29, 0xdf, 0x0e, 0x28, 0x04, 0x1f, 0x10,
    0x19, 0xd4, 0xf7, 0xfb, 0x3a, 0xdb, 0xcd, 0xd5, 0xf5, 0xfd, 0x10, 0xd5,
    0x10, 0x18, 0xfa, 0x2f, 0xf9, 0x2d, 0xe3, 0xd6, 0xc9, 0x05, 0xf8, 0xde,
    0xdd, 0x0c, 0xcc, 0xca, 0xd1, 0xed, 0x05, 0xde, 0xe0, 0x0c, 0xd8, 0xb5,
    0x1d, 0x0f, 0x0e, 0xe3, 0x0b, 0x2d, 0x30, 0x00, 0xfc, 0xfb, 0xd0, 0x11,
    0x3f, 0x05, 0x32, 0xfc, 0xfe, 0x19, 0x02, 0xf4, 0xcf, 0x0b, 0x1a, 0x33,
    0x31, 0x3e, 0x3c, 0x21, 0x19, 0x12, 0x48, 0x20, 0x16, 0x38, 0x0c, 0xd0,
    0xe5, 0x1e, 0x08, 0x2b, 0xce, 0x30, 0x21, 0xc7, 0xef, 0x23, 0x18, 0x24,
    0xd9, 0xed, 0xe6, 0x18, 0x1f, 0xfd, 0x13, 0xf5, 0x28, 0x1f, 0xd6, 0xd5,
    0xfe, 0x23, 0xfc, 0xf2, 0xc4, 0xc4, 0x1c, 0xf3, 0xe8, 0xe0, 0x21, 0x31,
    0xfa, 0x40, 0xf7, 0x11, 0x0e, 0x01, 0xda, 0xe2, 0xef, 0xe6, 0xc8, 0x0a,
    0xe5, 0x1d, 0x33, 0x05, 0xfd, 0x09, 0xff, 0xc7, 0x31, 0xcd, 0x11, 0x09,
    0xc6, 0xde, 0xd1, 0xdc, 0x27, 0xce, 0xf6, 0xf4, 0xd0, 0xca, 0xdd, 0x09,
    0x1a, 0x3e, 0x1f, 0x18, 0x24, 0xf8, 0x33, 0x37, 0x16, 0xf5, 0xeb, 0xf4,
    0x23, 0x31, 0xec, 0xcd, 0xd7, 0xe1, 0x24, 0xe2, 0xf4, 0xf3, 0x08, 0xed,
    0x2c, 0xd8, 0x05, 0x37, 0x2c, 0x28, 0xcd, 0xf5, 0x4f, 0xe1, 0x0b, 0x07,
    0xf5, 0x2e, 0xea, 0x33, 0x10, 0x04, 0xf2, 0x25, 0x15, 0x10, 0xf1, 0xcf,
    0xda, 0x2a, 0x19, 0x17, 0x38, 0x0c, 0x36, 0xf1, 0x32, 0xd6, 0xdf, 0x06,
    0x03, 0x10, 0xea, 0xcc, 0xf9, 0xe6, 0xfd, 0xdd, 0xc9, 0x0e, 0xd7, 0x1d,
    0x2d, 0xd9, 0xd2, 0xed, 0xeb, 0x0c, 0x0f, 0xd1, 0x19, 0xf9, 0xe2, 0x11,
    0xde, 0x0c, 0x31, 0xe6, 0x12, 0xed, 0xd7, 0x25, 0x04, 0xeb, 0x00, 0x3a,
    0x09, 0x16, 0x05, 0x1f, 0xd6, 0x1d, 0xf2, 0x10, 0xe1, 0x16, 0x13, 0x40,
    0xf4, 0xed, 0x21, 0xdc, 0xef, 0x32, 0xdd, 0x22, 0x01, 0xf4, 0x14, 0x24,
    0x31, 0xe3, 0x23, 0xd3, 0xe5, 0xfe, 0xfe, 0x1a, 0x1c, 0xef, 0x01, 0x17,
    0xcd, 0x1c, 0xd8, 0x05, 0xd2, 0xe2, 0xd6, 0x02, 0x0e, 0xd1, 0x07, 0x05,
    0x24, 0x1a, 0xd0, 0xf5, 0x17, 0x0c, 0x22, 0xe2, 0x27, 0x06, 0xf6, 0x2b,
    0xee, 0xeb, 0xf6, 0xda, 0xc2, 0xec, 0xfd, 0xf0, 0xca, 0xdc, 0xeb, 0xf7,
    0xdf, 0x2a, 0xf8, 0xe9, 0x03, 0x2b, 0x2b, 0xd4, 0xdd, 0xce, 0x15, 0x07,
    0x19, 0xee, 0x39, 0x14, 0x33, 0x30, 0xf4, 0xd5, 0x13, 0x19, 0x1d, 0x0a,
    0xca, 0xd9, 0x41, 0x23, 0x25, 0x18, 0xe6, 0xca, 0x1b, 0x1c, 0xd7, 0x01,
    0x20, 0x05, 0x10, 0x2c, 0xd1, 0x25, 0xf7, 0x15, 0xcf, 0xfd, 0x19, 0x12,
    0x0d, 0x1f, 0xf5, 0x0c, 0x03, 0x37, 0x1a, 0x0a, 0xf5, 0x0d, 0x04, 0xcb,
    0x27, 0xd7, 0xec, 0x27, 0xe8, 0x16, 0xd9, 0x30, 0xfa, 0xeb, 0x15, 0x14,
    0x1e, 0x18, 0x1a, 0x03, 0x14, 0xe5, 0x34, 0x15, 0x8e, 0xed, 0xff, 0xff,
    0x04, 0x00, 0x00, 0x00, 0x00, 0x01, 0x00, 0x00, 0xfc, 0x00, 0x00, 0x00,
    0xb5, 0x09, 0x00, 0x00, 0xc6, 0xfe, 0xff, 0xff, 0x6f, 0xfe, 0xff, 0xff,
    0x22, 0x06, 0x00, 0x00, 0xdc, 0x07, 0x00, 0x00, 0x06, 0xfe, 0xff, 0xff,
    0x3e, 0xfc, 0xff, 0xff, 0xe2, 0x07, 0x00, 0x00, 0x34, 0x00, 0x00, 0x00,
    0x01, 0xfd, 0xff, 0xff, 0x72, 0x0a, 0x00, 0x00, 0xab, 0x0c, 0x00, 0x00,
    0x16, 0x08, 0x00, 0x00, 0xb5, 0xfe, 0xff, 0xff, 0x4b, 0x06, 0x00, 0x00,
    0x95, 0x08, 0x00, 0x00, 0x19, 0x09, 0x00, 0x00, 0xfe, 0x02, 0x00, 0x00,
    0x56, 0x05, 0x00, 0x00, 0x23, 0x09, 0x00, 0x00, 0x7c, 0x06, 0x00, 0x00,
    0x06, 0x08, 0x00, 0x00, 0x2e, 0x02, 0x00, 0x00, 0xc9, 0x07, 0x00, 0x00,
    0x08, 0x0a, 0x00, 0x00, 0x6c, 0x08, 0x00, 0x00, 0x2c, 0x0b, 0x00, 0x00,
    0x47, 0x08, 0x00, 0x00, 0x0f, 0xfd, 0xff, 0xff, 0xce, 0xff, 0xff, 0xff,
    0x0f, 0x07, 0x00, 0x00, 0x89, 0x00, 0x00, 0x00, 0x21, 0x09, 0x00, 0x00,
    0xe8, 0x05, 0x00, 0x00, 0x0b, 0x09, 0x00, 0x00, 0x1f, 0xff, 0xff, 0xff,
    0x1f, 0x07, 0x00, 0x00, 0xaf, 0x09, 0x00, 0x00, 0xee, 0x05, 0x00, 0x00,
    0x10, 0x09, 0x00, 0x00, 0xd5, 0x0b, 0x00, 0x00, 0xf4, 0x07, 0x00, 0x00,
    0xe8, 0x07, 0x00, 0x00, 0xe7, 0x08, 0x00, 0x00, 0x30, 0xfe, 0xff, 0xff,
    0xcd, 0x0e, 0x00, 0x00, 0xb4, 0x07, 0x00, 0x00, 0x8a, 0x09, 0x00, 0x00,
    0x36, 0x00, 0x00, 0x00, 0x98, 0x07, 0x00, 0x00, 0xd2, 0x07, 0x00, 0x00,
    0x5d, 0x06, 0x00, 0x00, 0xf1, 0x07, 0x00, 0x00, 0xd4, 0x04, 0x00, 0x00,
    0x2b, 0x07, 0x00, 0x00, 0x76, 0x0a, 0x00, 0x00, 0x28, 0x07, 0x00, 0x00,
    0xde, 0xfe, 0xff, 0xff, 0x56, 0x09, 0x00, 0x00, 0x52, 0x08, 0x00, 0x00,
    0x1e, 0x00, 0x00, 0x00, 0x5b, 0x05, 0x00, 0x00, 0xef, 0x02, 0x00, 0x00,
    0x9a, 0xee, 0xff, 0xff, 0x04, 0x00, 0x00, 0x00, 0x00, 0x10, 0x00, 0x00,
    0xfc, 0x0e, 0x2f, 0xc6, 0xbd, 0x14, 0x37, 0xd9, 0xe3, 0xb7, 0xf8, 0xff,
    0xc7, 0x1e, 0xdc, 0xeb, 0x17, 0xc7, 0x02, 0x2f, 0x06, 0x35, 0xc7, 0x1f,
    0xf0, 0x1e, 0x01, 0xd2, 0x26, 0xd9, 0x1a, 0x3b, 0xbd, 0x24, 0xca, 0xc0,
    0x2f, 0xc3, 0xdf, 0x31, 0xc6, 0x0a, 0x1a, 0x29, 0xf0, 0xd9, 0xd3, 0xf4,
    0xea, 0x0a, 0xcb, 0xfa, 0xff, 0x02, 0x2d, 0x19, 0xd8, 0x2e, 0x29, 0xcf,
    0x2e, 0xf7, 0x2c, 0x2e, 0x20, 0xdf, 0x16, 0xf7, 0x2f, 0xde, 0x15, 0xf5,
    0xe3, 0xd0, 0xca, 0x1c, 0x16, 0x1b, 0x32, 0x05, 0x28, 0x03, 0x10, 0x08,
    0x0f, 0xcd, 0x20, 0x2b, 0x2f, 0x32, 0xe0, 0x27, 0xef, 0x25, 0xfe, 0xf9,
    0xfc, 0xe9, 0xf9, 0xf0, 0x32, 0xd2, 0xec, 0xe0, 0x30, 0xc8, 0x1d, 0x20,
    0x2c, 0x25, 0xd4, 0xbc, 0xc0, 0xcc, 0xee, 0xf1, 0x2c, 0xd8, 0x33, 0xe3,
    0xbf, 0xb9, 0xe7, 0x0d, 0xf3, 0x13, 0x0d, 0xcc, 0xda, 0xe9, 0x2c, 0x48,
    0x38, 0x30, 0x2b, 0xea, 0xee, 0xe5, 0xfc, 0xe6, 0xec, 0xfb, 0x4b, 0xe8,
    0xfc, 0xde, 0xe9, 0xad, 0x11, 0xc1, 0xbd, 0x36, 0xd1, 0xe4, 0x2d, 0x0a,
    0xfe, 0xff, 0xad, 0xc0, 0x1d, 0x14, 0xc4, 0xcf, 0xd2, 0x26, 0x30, 0x14,
    0xcb, 0x24, 0xc9, 0x15, 0xce, 0x0b, 0x1f, 0xff, 0x10, 0x4d, 0xd7, 0xd7,
    0xe2, 0x34, 0xd7, 0xc6, 0x16, 0x1b, 0xce, 0xd9, 0xd1, 0x29, 0xd3, 0xfa,
    0x2d, 0xe0, 0xfa, 0x02, 0x33, 0xdd, 0x32, 0xef, 0xea, 0xdc, 0x2b, 0x17,
    0x2d, 0x04, 0xf4, 0x2f, 0xce, 0xe3, 0xc5, 0x33, 0xd4, 0x1c, 0x10, 0x37,
    0xd5, 0xea, 0x04, 0x28, 0xc4, 0x4e, 0xe7, 0xd1, 0xd5, 0x16, 0x2a, 0xcb,
    0xf8, 0x1c, 0xe4, 0x13, 0xda, 0x08, 0x0b, 0x1d, 0x36, 0x25, 0xf3, 0x1c,
    0x14, 0x1a, 0xfc, 0xbe, 0xc5, 0x26, 0x3b, 0xcd, 0xc4, 0x0e, 0x2f, 0x18,
    0xe9, 0xd9, 0x21, 0xd6, 0x00, 0x51, 0xfd, 0x15, 0x3d, 0x2c, 0xd4, 0xc9,
    0x28, 0x21, 0xdc, 0xf8, 0x01, 0x4f, 0x0c, 0x03, 0x42, 0x4e, 0xf9, 0x0e,
    0x4e, 0x1b, 0xf8, 0xf7, 0x58, 0x2d, 0xf6, 0x3f, 0xf2, 0xd5, 0x5f, 0x51,
    0x28, 0x4e, 0x3e, 0xe8, 0xf9, 0x3e, 0x00, 0x08, 0xf7, 0x1d, 0x17, 0xfd,
    0x18, 0xdf, 0x5e, 0x0a, 0xef, 0xff, 0x33, 0x3f, 0x1c, 0x16, 0x31, 0x1a,
    0x40, 0x11, 0xe3, 0x5c, 0xf0, 0x0e, 0x1d, 0x03, 0xfb, 0xed, 0xc5, 0xd6,
    0x1b, 0x16, 0xef, 0xe1, 0x07, 0x06, 0xcf, 0x23, 0x33, 0xe4, 0x1c, 0x2d,
    0x4e, 0xec, 0x2a, 0x09, 0x2e, 0xf7, 0x3c, 0x12, 0x1d, 0xf0, 0x21, 0xf7,
    0x00, 0xcc, 0xfa, 0x27, 0x06, 0x17, 0x28, 0x60, 0x43, 0x59, 0x2b, 0xf2,
    0x15, 0x45, 0x49, 0x1f, 0xdc, 0xd1, 0x1c, 0x42, 0x2c, 0x2f, 0x03, 0xfb,
    0x2d, 0x2f, 0x03, 0x10, 0x16, 0x05, 0x0d, 0x2d, 0x14, 0xd2, 0xfb, 0x19,
    0xfc, 0x19, 0x03, 0xfd, 0x04, 0xf3, 0xe8, 0x02, 0xd9, 0xe3, 0xc1, 0xc3,
    0x2d, 0xe5, 0xea, 0x39, 0x3b, 0xdb, 0x36, 0x38, 0xc8, 0xdd, 0x04, 0xf8,
    0x19, 0x06, 0x2a, 0xf9, 0xdf, 0xfb, 0x25, 0x14, 0xcd, 0x36, 0xcd, 0x28,
    0xcf, 0x2c, 0xb8, 0x1c, 0xe7, 0xd9, 0x23, 0x36, 0xec, 0xd9, 0xbd, 0x24,
    0xf0, 0xcb, 0xe8, 0xdc, 0x14, 0x02, 0x22, 0xe1, 0x19, 0xc7, 0x10, 0xeb,
    0xca, 0x12, 0xf1, 0x2a, 0x32, 0xf8, 0x3c, 0x1b, 0x32, 0xc2, 0x0d, 0x04,
    0x1a, 0xc4, 0x43, 0x01, 0x4b, 0x21, 0x2f, 0xd0, 0xcb, 0xfb, 0x31, 0x1d,
    0x41, 0x10, 0x1b, 0x0d, 0xd0, 0xea, 0xca, 0xfe, 0x03, 0x37, 0xc1, 0xda,
    0xef, 0x00, 0xfe, 0xb6, 0x2d, 0x28, 0x33, 0xc3, 0x12, 0x05, 0xcc, 0xcf,
    0xff, 0x44, 0xcd, 0x24, 0x35, 0xf8, 0xfa, 0xcd, 0xd9, 0xce, 0xe1, 0xdc,
    0xd9, 0xfe, 0x22, 0x35, 0xc4, 0x1d, 0x1f, 0xcd, 0xb6, 0xc4, 0xfc, 0x25,
    0xd5, 0xc4, 0x4c, 0x13, 0xac, 0xa4, 0x35, 0x41, 0x00, 0x28, 0x1e, 0x0c,
    0xda, 0xdd, 0xc0, 0xf7, 0x2b, 0x22, 0x2b, 0x43, 0xc0, 0x3d, 0x2b, 0xe2,
    0x1c, 0x10, 0xfb, 0xe4, 0xac, 0x03, 0x31, 0x06, 0xd3, 0x0a, 0xf7, 0x22,
    0xd7, 0x26, 0xeb, 0xe0, 0xff, 0x67, 0x06, 0xe9, 0x06, 0x3e, 0x12, 0xbc,
    0xe1, 0x47, 0xdb, 0x2f, 0x1b, 0x21, 0x00, 0xe1, 0x16, 0xd9, 0xf9, 0xf5,
    0x02, 0x4b, 0xe9, 0x19, 0xe7, 0xe6, 0xb8, 0xff, 0x26, 0x3e, 0x00, 0x31,
    0x67, 0xdd, 0xea, 0x27, 0x54, 0x19, 0x16, 0x54, 0x10, 0x08, 0x41, 0x39,
    0xf0, 0x3b, 0xee, 0x1e, 0x29, 0xbf, 0xf1, 0xf7, 0x53, 0x09, 0x49, 0x07,
    0x21, 0x34, 0xe6, 0x2e, 0xe3, 0x2b, 0x1c, 0x24, 0xef, 0xd0, 0x28, 0xfb,
    0x02, 0x2c, 0x11, 0x58, 0x3f, 0x3e, 0x1a, 0x09, 0xfe, 0x38, 0x29, 0x16,
    0x06, 0x28, 0x58, 0x25, 0xf0, 0xce, 0x01, 0x38, 0xcd, 0xfe, 0x0a, 0x37,
    0x28, 0xe4, 0x28, 0x04, 0xcd, 0xdd, 0x06, 0xfe, 0xde, 0x3e, 0xc7, 0xe6,
    0x19, 0xe5, 0xf1, 0x32, 0x1c, 0x17, 0xf0, 0x04, 0x19, 0x1b, 0x0b, 0xe8,
    0x25, 0x0e, 0x34, 0x14, 0x27, 0x24, 0x0c, 0xe8, 0x02, 0xef, 0xc6, 0xf1,
    0xf4, 0xf4, 0xde, 0xea, 0x20, 0xfb, 0xdb, 0x04, 0xe3, 0x2e, 0x31, 0xe5,
    0x11, 0x08, 0xef, 0xd8, 0x29, 0x14, 0xe8, 0xdb, 0xdb, 0x06, 0xd1, 0xdc,
    0x47, 0x0f, 0x08, 0x29, 0x25, 0x0e, 0xe5, 0xf3, 0x49, 0x38, 0xcb, 0xdb,
    0xff, 0xe4, 0x36, 0xe9, 0xf0, 0xe2, 0xf2, 0x0f, 0x26, 0x45, 0x45, 0x36,
    0x4a, 0xf4, 0xde, 0x13, 0x1e, 0x38, 0x1c, 0x53, 0xd9, 0x60, 0x22, 0x1e,
    0xf1, 0x27, 0xed, 0xf6, 0xe3, 0xe7, 0x45, 0x53, 0xf6, 0x3d, 0xec, 0x01,
    0x4f, 0x40, 0x27, 0x26, 0x41, 0xd9, 0xe7, 0x10, 0x49, 0x41, 0x15, 0xf2,
    0x4f, 0x6e, 0xcc, 0xe9, 0x59, 0x0e, 0xd6, 0x42, 0x34, 0x52, 0xaf, 0x3b,
    0x7c, 0x13, 0xc2, 0x05, 0x4b, 0x05, 0x2c, 0x4b, 0x39, 0x17, 0x1c, 0xdb,
    0xfa, 0x10, 0x5b, 0x22, 0xdf, 0xc4, 0x0c, 0x3d, 0xff, 0x3f, 0x12, 0x0a,
    0xe4, 0x17, 0xf3, 0xf1, 0x4e, 0x39, 0x29, 0x54, 0x05, 0xf9, 0x77, 0x5d,
    0xe8, 0x25, 0x59, 0x1d, 0x06, 0x1d, 0x26, 0x19, 0x56, 0x23, 0xfd, 0x3e,
    0xf6, 0xe1, 0x5c, 0xfe, 0x05, 0xd1, 0x04, 0xc5, 0xbf, 0xd5, 0x12, 0xc3,
    0x30, 0x18, 0x0b, 0x0d, 0x02, 0xec, 0xe2, 0x0b, 0xfb, 0xde, 0x10, 0x2b,
    0xf0, 0x26, 0xf0, 0x02, 0xbd, 0xed, 0xc8, 0x20, 0x3f, 0x13, 0x0a, 0x1c,
    0x05, 0xce, 0xf1, 0x02, 0x27, 0xfd, 0x2f, 0x1c, 0xbb, 0xcd, 0xf6, 0xe5,
    0xc0, 0x01, 0x18, 0xcf, 0xf8, 0xe1, 0xb4, 0xf5, 0x02, 0x34, 0xec, 0x20,
    0xe1, 0x0f, 0xcf, 0x05, 0x21, 0xe1, 0xed, 0x17, 0xef, 0x07, 0x3a, 0xe7,
    0xc1, 0xc5, 0x2b, 0xce, 0xe7, 0xd7, 0x36, 0x29, 0xdc, 0x1c, 0xcf, 0xf3,
    0x2b, 0x12, 0x23, 0x1b, 0xd4, 0x28, 0x2d, 0xde, 0xc4, 0xbf, 0xd2, 0x09,
    0xef, 0x09, 0x1a, 0xe4, 0xf2, 0xd2, 0x23, 0xe1, 0x0d, 0x16, 0xeb, 0xc1,
    0xc9, 0x3a, 0xcb, 0xd4, 0x25, 0x26, 0xbe, 0xfc, 0x21, 0xfa, 0xfc, 0x3b,
    0x18, 0x0d, 0xd9, 0xe7, 0xdb, 0x20, 0xbd, 0xfe, 0x14, 0x16, 0xc6, 0x3a,
    0x27, 0x1f, 0xf7, 0xcb, 0xdf, 0x0a, 0xcb, 0x10, 0x0b, 0x16, 0xf7, 0x07,
    0x46, 0xea, 0xe1, 0x0b, 0x2d, 0x43, 0x48, 0xff, 0x3f, 0x16, 0x4f, 0x1c,
    0x3f, 0x33, 0x1b, 0xed, 0xdd, 0xf7, 0x02, 0xf5, 0x3f, 0x44, 0x42, 0x46,
    0x04, 0xf0, 0x57, 0x26, 0x23, 0xeb, 0x4a, 0x16, 0xf6, 0xc3, 0x63, 0x15,
    0x4c, 0xf8, 0x0d, 0x43, 0xe5, 0x1d, 0x43, 0x10, 0x20, 0x45, 0xf1, 0x62,
    0x0b, 0x20, 0x47, 0x04, 0x13, 0xf1, 0xf6, 0x2d, 0x19, 0xc8, 0xdb, 0x41,
    0x1c, 0x00, 0x3c, 0xcc, 0x07, 0x29, 0x13, 0xbc, 0xf7, 0x20, 0x1e, 0xc7,
    0x33, 0xff, 0x19, 0x1e, 0x2d, 0x1b, 0xd4, 0x33, 0xf5, 0xe5, 0xda, 0x0f,
    0x36, 0xcc, 0xd4, 0x28, 0x0f, 0xf7, 0x2a, 0xe8, 0xfc, 0x33, 0xdf, 0xd3,
    0xf6, 0xf2, 0xd8, 0xbc, 0x0f, 0x0d, 0xf0, 0xfc, 0x0f, 0xea, 0x36, 0xe4,
    0xde, 0xc8, 0xe2, 0xf8, 0x2f, 0xcc, 0xf2, 0x04, 0xc0, 0xbf, 0x0e, 0x6e,
    0x0e, 0x11, 0x59, 0x28, 0x09, 0xd8, 0x31, 0x31, 0x90, 0x0b, 0x3a, 0xf6,
    0x05, 0x17, 0xf7, 0x4d, 0x0e, 0xec, 0xb8, 0x3f, 0xc6, 0x24, 0x37, 0x09,
    0x39, 0x6b, 0xed, 0xf0, 0x03, 0x1d, 0xe2, 0xd8, 0xc0, 0xc1, 0xb4, 0x05,
    0x21, 0x1d, 0xf7, 0xff, 0xc0, 0x29, 0xfc, 0xfe, 0x2f, 0xfc, 0xd5, 0x27,
    0xe0, 0xf2, 0xed, 0xdd, 0xc8, 0xf3, 0xae, 0xc9, 0xe1, 0xdc, 0xd3, 0x07,
    0x08, 0x4d, 0xe7, 0x26, 0xfd, 0x12, 0xbc, 0xf9, 0x49, 0x11, 0xea, 0x5f,
    0x11, 0x43, 0xda, 0x39, 0x08, 0xfb, 0x32, 0x44, 0x37, 0x39, 0x32, 0xe2,
    0x06, 0x2d, 0xea, 0xf1, 0x2c, 0xfb, 0x1d, 0x01, 0x07, 0x43, 0x15, 0x40,
    0x52, 0x05, 0x1c, 0x2c, 0x37, 0x02, 0x2a, 0xf5, 0xf1, 0xf4, 0x4b, 0xfa,
    0x37, 0xdd, 0xf8, 0xef, 0xe1, 0x27, 0xe2, 0x0d, 0x53, 0xf3, 0x17, 0x61,
    0xf4, 0x49, 0x38, 0x19, 0x39, 0x12, 0xdd, 0xca, 0x0c, 0x54, 0x0d, 0x1b,
    0xe8, 0x2a, 0xc9, 0x14, 0x5e, 0x26, 0x30, 0x40, 0x2b, 0x15, 0x0e, 0x2e,
    0x14, 0xea, 0x1d, 0x16, 0x52, 0x24, 0x0e, 0x11, 0x28, 0xf5, 0x33, 0x2e,
    0xed, 0xdd, 0xf7, 0xee, 0xf6, 0xf5, 0x01, 0x34, 0x28, 0x5b, 0x1e, 0x0c,
    0xfc, 0xd8, 0x43, 0x55, 0x57, 0xd7, 0x5a, 0xf3, 0x1e, 0x00, 0xeb, 0x3a,
    0x58, 0x0d, 0xdb, 0x05, 0x47, 0x24, 0x04, 0x2f, 0x3d, 0x50, 0xc4, 0xc1,
    0x14, 0x2d, 0xca, 0xcd, 0x3e, 0xf0, 0xf9, 0xf2, 0x23, 0x0b, 0xed, 0x4c,
    0xe2, 0x2a, 0xdf, 0x1f, 0x0a, 0x33, 0xfe, 0x2f, 0x52, 0x2a, 0x21, 0xf6,
    0x1d, 0xf2, 0x49, 0x24, 0xf7, 0x46, 0x2f, 0x39, 0x11, 0x3b, 0xf3, 0x37,
    0x46, 0x5b, 0x24, 0x29, 0x52, 0xfc, 0x03, 0xee, 0x18, 0x0b, 0x00, 0x11,
    0x39, 0x18, 0x0e, 0x33, 0x05, 0x38, 0xe8, 0x39, 0xe3, 0xd3, 0xdc, 0x4e,
    0x17, 0x12, 0xe8, 0x3c, 0xdc, 0xbd, 0x25, 0xdd, 0x2d, 0x05, 0x12, 0x2e,
    0xca, 0x28, 0x43, 0xea, 0x1d, 0xce, 0x08, 0xca, 0xd8, 0x30, 0x33, 0x3c,
    0xd6, 0x24, 0x21, 0x0a, 0x25, 0x2d, 0xf3, 0xe3, 0x20, 0x00, 0xd0, 0xdc,
    0x0f, 0x23, 0xc9, 0x1c, 0x11, 0xce, 0x09, 0x08, 0x08, 0x32, 0xb8, 0xe3,
    0xfb, 0x12, 0xe9, 0xeb, 0xe8, 0x25, 0x28, 0xca, 0x35, 0xd2, 0xd9, 0x18,
    0xcc, 0x19, 0x24, 0x2b, 0x0f, 0x2f, 0xcb, 0xbe, 0x04, 0x10, 0x05, 0x11,
    0x14, 0x29, 0xa6, 0x71, 0x39, 0x19, 0xd3, 0x48, 0x65, 0x1d, 0x3a, 0xef,
    0x53, 0x36, 0x5a, 0xdc, 0xeb, 0x09, 0x20, 0x35, 0x22, 0x00, 0x5b, 0x41,
    0xfd, 0x33, 0x05, 0x66, 0x4e, 0x6d, 0x7f, 0xdb, 0x21, 0x30, 0x05, 0x14,
    0x38, 0xec, 0x42, 0x0f, 0x69, 0x3c, 0x38, 0x2a, 0x18, 0x21, 0x0d, 0x28,
    0x47, 0x11, 0xfb, 0x31, 0x09, 0x51, 0x36, 0xf3, 0xe4, 0xf7, 0xb9, 0xbe,
    0x25, 0x38, 0x24, 0xec, 0x02, 0x15, 0xeb, 0x38, 0x1c, 0x2e, 0xee, 0x08,
    0x26, 0x28, 0x1e, 0x47, 0x10, 0x46, 0x41, 0xe1, 0xf7, 0x14, 0x22, 0x54,
    0x12, 0xf7, 0x16, 0x20, 0xdc, 0x52, 0x25, 0x49, 0xdc, 0xf3, 0xe5, 0x4e,
    0x4c, 0x37, 0xf5, 0x40, 0xee, 0xc5, 0x5a, 0x40, 0x52, 0xf8, 0x24, 0x33,
    0x02, 0x10, 0x46, 0x01, 0x1a, 0x47, 0xda, 0x34, 0xff, 0xfe, 0x1f, 0x24,
    0x15, 0xb8, 0x11, 0x44, 0x16, 0xd2, 0x24, 0xeb, 0xde, 0xf5, 0x28, 0x1a,
    0x37, 0xcd, 0x32, 0x08, 0x11, 0xf2, 0xec, 0xe2, 0x02, 0xe5, 0xf0, 0x0d,
    0xe7, 0x33, 0xcb, 0x01, 0x02, 0x42, 0x15, 0x0e, 0xdc, 0x0b, 0x19, 0xf6,
    0x2c, 0xbc, 0x17, 0x2e, 0x0b, 0xd0, 0x30, 0xbd, 0xce, 0x4c, 0xf0, 0x0e,
    0x11, 0x21, 0x34, 0x0a, 0x27, 0x0d, 0xf7, 0x27, 0xf0, 0xeb, 0x12, 0xf3,
    0xf7, 0x31, 0xda, 0xf3, 0x2a, 0x12, 0xea, 0x0e, 0x37, 0x01, 0x29, 0x31,
    0xc2, 0x19, 0xf1, 0xf1, 0xe8, 0xe3, 0x17, 0x32, 0xd2, 0xcd, 0xff, 0xf5,
    0xee, 0xe1, 0xf8, 0x30, 0xea, 0xd7, 0x1b, 0xc9, 0xce, 0x14, 0x08, 0x1c,
    0xdf, 0x20, 0xf2, 0x20, 0x29, 0xca, 0x0f, 0x1e, 0x04, 0x09, 0x34, 0xc5,
    0xcd, 0x26, 0xd3, 0x36, 0xda, 0x37, 0xc1, 0xee, 0x36, 0xcf, 0xdf, 0xe6,
    0x07, 0xd5, 0xe3, 0x2a, 0x04, 0xfb, 0x35, 0x37, 0x0e, 0x63, 0xcc, 0x2f,
    0xe0, 0xff, 0xcd, 0x0f, 0x57, 0x08, 0xf9, 0xfd, 0x1b, 0xdc, 0xe5, 0x41,
    0x56, 0xf2, 0x13, 0xdf, 0xed, 0x50, 0x15, 0xe7, 0xf7, 0x2b, 0x38, 0x41,
    0xe1, 0xda, 0x03, 0xe6, 0x54, 0x4a, 0x23, 0x2c, 0x34, 0x10, 0x34, 0x2d,
    0x4f, 0x12, 0x3a, 0x2c, 0x2b, 0x2e, 0x35, 0x11, 0x32, 0xee, 0x07, 0x45,
    0xe4, 0x33, 0xd9, 0x52, 0x37, 0x18, 0x1d, 0x2a, 0x20, 0x20, 0x4c, 0xf9,
    0xe7, 0x21, 0x42, 0x4a, 0x23, 0xd9, 0x0c, 0x3f, 0xc0, 0xf9, 0x51, 0xf9,
    0x40, 0xf8, 0x22, 0xc0, 0xc8, 0x14, 0xf6, 0x0e, 0x35, 0x0d, 0x00, 0x3c,
    0x10, 0xc7, 0x20, 0xe0, 0xfd, 0xf9, 0xfd, 0x12, 0xf1, 0xeb, 0x0b, 0xef,
    0x19, 0xfa, 0xee, 0x15, 0xe1, 0x07, 0xd2, 0x16, 0xe6, 0x0a, 0xe3, 0x07,
    0xfc, 0x3b, 0xde, 0xc8, 0x24, 0x0c, 0xda, 0xf5, 0xd2, 0x19, 0x0f, 0xd7,
    0xbe, 0x13, 0xe4, 0x3e, 0x27, 0x11, 0x23, 0xd3, 0x1f, 0x52, 0xc3, 0x3e,
    0x25, 0x13, 0xdf, 0x1a, 0x46, 0x47, 0x1f, 0x06, 0x52, 0x1d, 0x1e, 0x05,
    0x23, 0x3b, 0x32, 0xd8, 0x46, 0xe0, 0x48, 0xf4, 0xe3, 0x14, 0x2d, 0x16,
    0x44, 0x39, 0x09, 0x55, 0xcf, 0x35, 0x30, 0xd4, 0x0a, 0xf0, 0x0a, 0xe5,
    0x4a, 0xd9, 0x04, 0x57, 0x10, 0x47, 0x3a, 0x3a, 0xde, 0xe4, 0x4d, 0x32,
    0x57, 0x31, 0x12, 0x2b, 0x21, 0xf1, 0x10, 0x04, 0xc6, 0xe1, 0xf5, 0x24,
    0xfe, 0xbc, 0x01, 0x23, 0xd8, 0xe5, 0xea, 0x09, 0xd9, 0xf3, 0x22, 0x06,
    0x0e, 0x27, 0xbd, 0x34, 0x23, 0x0b, 0xf9, 0x1f, 0xe4, 0xde, 0xda, 0xea,
    0x0f, 0xcf, 0x14, 0x35, 0xfa, 0x00, 0x26, 0xe9, 0x1e, 0xe0, 0xc0, 0xe1,
    0x18, 0x08, 0xe6, 0x1f, 0x0d, 0x3a, 0x24, 0xb5, 0x19, 0xcd, 0xc7, 0x0d,
    0x38, 0xce, 0x31, 0x22, 0x06, 0x35, 0x15, 0x2e, 0xdd, 0xcd, 0x1e, 0x19,
    0xe2, 0x53, 0xf9, 0x11, 0x3f, 0xf6, 0xec, 0xcc, 0x52, 0x04, 0xba, 0x42,
    0x36, 0x33, 0x19, 0xf7, 0x4a, 0x0b, 0xde, 0x3f, 0xff, 0x48, 0xee, 0xce,
    0x17, 0x43, 0x02, 0x52, 0xfd, 0xeb, 0xef, 0x43, 0x2a, 0x4a, 0x0c, 0x41,
    0xee, 0x2a, 0x33, 0x3b, 0x1d, 0xf9, 0x31, 0x14, 0xe3, 0xf8, 0x13, 0x47,
    0xdf, 0xec, 0x13, 0x37, 0xee, 0x2f, 0x41, 0xed, 0x44, 0x3b, 0x47, 0x55,
    0x2f, 0x05, 0xed, 0x2c, 0x1c, 0xf9, 0x22, 0x23, 0x08, 0xcb, 0x04, 0xec,
    0x0e, 0xd4, 0x01, 0x1c, 0x06, 0x29, 0x2b, 0xcc, 0x38, 0xb7, 0x23, 0xe7,
    0x11, 0x05, 0xe8, 0xfb, 0xca, 0xbf, 0x2e, 0xd5, 0xd1, 0xe3, 0x19, 0x0c,
    0x2d, 0x26, 0x2c, 0xf4, 0x29, 0xe7, 0xb7, 0xe3, 0x27, 0x01, 0x12, 0x22,
    0xe0, 0x44, 0xc7, 0xd8, 0x27, 0x1a, 0xfe, 0xbf, 0xcc, 0xd5, 0x14, 0xcc,
    0xf0, 0x23, 0xe0, 0x0d, 0x2b, 0x1e, 0xbe, 0xda, 0xdd, 0x25, 0xd0, 0xde,
    0xc1, 0x0c, 0xdc, 0xce, 0x06, 0x26, 0xfb, 0xfd, 0xcb, 0xb8, 0xd6, 0xcc,
    0x29, 0xdd, 0xc7, 0x16, 0xe3, 0x22, 0xdd, 0x28, 0x38, 0xc6, 0x2d, 0xf0,
    0xd4, 0xde, 0xe3, 0x0a, 0xc9, 0xdf, 0x22, 0xf6, 0xeb, 0xd5, 0x1b, 0xdd,
    0xe9, 0xde, 0xc9, 0xfb, 0xf3, 0xf3, 0xf5, 0xff, 0x2c, 0xd1, 0x00, 0x02,
    0x0f, 0xc0, 0x1f, 0x07, 0x1f, 0x2c, 0xe3, 0x12, 0xe0, 0xf6, 0xfb, 0x25,
    0xce, 0x0f, 0x05, 0x2b, 0x3b, 0x46, 0xeb, 0x08, 0x01, 0x07, 0xc5, 0x5b,
    0x1c, 0x44, 0xe7, 0x34, 0x1f, 0x43, 0x0b, 0x13, 0xf6, 0xf5, 0x29, 0xe4,
    0xea, 0xea, 0x05, 0x26, 0xfb, 0xdb, 0x34, 0x2b, 0x14, 0x1f, 0xe7, 0x5b,
    0x28, 0x11, 0x16, 0x01, 0x1e, 0x45, 0x03, 0x51, 0x17, 0xd6, 0x2b, 0x1b,
    0x19, 0xff, 0x0b, 0x10, 0x42, 0x14, 0x1f, 0x54, 0x31, 0x0c, 0x23, 0x18,
    0x12, 0xdd, 0x0c, 0x2b, 0x19, 0x2a, 0x0c, 0xc7, 0x31, 0xe2, 0xd8, 0xe3,
    0x0e, 0x41, 0xc9, 0x37, 0x60, 0xe2, 0x3f, 0x52, 0xed, 0x04, 0x02, 0x3d,
    0x4c, 0x18, 0xe9, 0xd9, 0x34, 0x25, 0x52, 0xfc, 0xfd, 0x1b, 0x4c, 0x0c,
    0x07, 0x46, 0x0a, 0x08, 0xe3, 0x17, 0xf4, 0x0d, 0x51, 0x12, 0xfb, 0x13,
    0x42, 0xc3, 0x14, 0xf5, 0x4f, 0x19, 0x29, 0x31, 0x27, 0xd9, 0x3c, 0x52,
    0x36, 0xdf, 0x32, 0x66, 0x24, 0x2d, 0xf0, 0xf8, 0xdf, 0x26, 0x18, 0xae,
    0x0a, 0xf5, 0x10, 0xc7, 0x37, 0x58, 0xea, 0x4e, 0x77, 0x1c, 0x03, 0xfe,
    0x4c, 0x4d, 0x0e, 0xd6, 0xdf, 0x53, 0x05, 0x1b, 0xf7, 0xe5, 0x30, 0x45,
    0xf4, 0xdc, 0xf6, 0x04, 0xf4, 0x46, 0xec, 0x5f, 0x4e, 0x3b, 0x40, 0x26,
    0x13, 0x10, 0x37, 0x43, 0xe4, 0xff, 0x0e, 0x51, 0x37, 0x39, 0x24, 0x1e,
    0xe0, 0x2d, 0x3f, 0x08, 0xfb, 0x25, 0x18, 0x11, 0x2d, 0x1c, 0xfd, 0xee,
    0xf9, 0x2a, 0xe7, 0xdd, 0xe3, 0x50, 0x23, 0xe1, 0x31, 0x3b, 0xc0, 0x60,
    0x0e, 0x35, 0x34, 0xe3, 0x0d, 0x27, 0x01, 0x17, 0x4c, 0x1d, 0x2b, 0xe2,
    0x0a, 0xfd, 0x38, 0x19, 0x2b, 0xc3, 0xfa, 0x11, 0xf7, 0x03, 0xf4, 0x58,
    0x47, 0x3e, 0x5a, 0xf7, 0xdf, 0xfa, 0xef, 0x25, 0x47, 0xf8, 0x1a, 0x11,
    0x51, 0xf0, 0xe8, 0xe6, 0x3a, 0xe5, 0xdb, 0x3e, 0xee, 0x50, 0xfa, 0xf4,
    0x36, 0x42, 0x4c, 0xd3, 0x48, 0x4f, 0xf5, 0xf5, 0x24, 0xee, 0x17, 0xfd,
    0x42, 0x12, 0x10, 0x0a, 0x4f, 0x34, 0xe4, 0x3d, 0xdf, 0x24, 0xeb, 0x0a,
    0x49, 0x2b, 0x18, 0x30, 0xf8, 0x16, 0x23, 0x34, 0x2f, 0xd9, 0x15, 0x42,
    0xde, 0x42, 0x4c, 0xea, 0xd8, 0x60, 0x4e, 0x40, 0x22, 0x1b, 0x4f, 0xdd,
    0x29, 0x2d, 0x3c, 0x52, 0x0e, 0x40, 0x3c, 0x0f, 0x4e, 0x29, 0x25, 0x3d,
    0xee, 0xd6, 0xe6, 0x17, 0x02, 0xf4, 0x09, 0x05, 0x0e, 0x07, 0xe5, 0x0c,
    0x06, 0xd6, 0x48, 0x01, 0xc5, 0xd2, 0x1f, 0xf3, 0x03, 0x21, 0x29, 0xfe,
    0xbd, 0xeb, 0xb7, 0x04, 0x12, 0x07, 0xc3, 0x39, 0x31, 0xe9, 0x31, 0x08,
    0x2b, 0x58, 0xa8, 0xd5, 0xa2, 0xf8, 0x01, 0xd1, 0x0c, 0xbe, 0xe1, 0x3d,
    0xf8, 0x3d, 0xff, 0xe4, 0xd0, 0x73, 0xbe, 0x3a, 0x0e, 0x2a, 0xdf, 0xda,
    0xe5, 0x06, 0x42, 0x24, 0x06, 0xea, 0x14, 0x12, 0x35, 0xd7, 0xd0, 0xfd,
    0x3f, 0xe8, 0xe4, 0xcb, 0xf7, 0x06, 0xcb, 0xe8, 0x56, 0x11, 0x0c, 0x3d,
    0x3a, 0x34, 0xfa, 0xe6, 0x11, 0x4b, 0x07, 0x31, 0x38, 0x02, 0x34, 0xd4,
    0xd9, 0xf5, 0x17, 0x06, 0xf4, 0x27, 0xdf, 0x13, 0xd9, 0x22, 0xf6, 0xe9,
    0xf4, 0x20, 0x0b, 0x44, 0x46, 0x3d, 0x2e, 0x4e, 0x17, 0xf0, 0x6b, 0x4c,
    0x2a, 0xe7, 0x37, 0x3f, 0x2b, 0x48, 0xdc, 0x58, 0x2a, 0x47, 0xf3, 0x27,
    0x0f, 0xd2, 0x40, 0xdd, 0xda, 0x3a, 0x13, 0xc4, 0x2b, 0x21, 0x2b, 0xfc,
    0x49, 0x63, 0x17, 0x1b, 0x1e, 0xe6, 0xd8, 0x30, 0xf3, 0x22, 0x19, 0x45,
    0x00, 0x49, 0xf3, 0x01, 0x0f, 0x52, 0x3b, 0x0c, 0xfc, 0x1c, 0x42, 0x1b,
    0xe8, 0x39, 0x49, 0x16, 0x04, 0xfb, 0xfc, 0x02, 0x4d, 0x01, 0x2a, 0x33,
    0x1c, 0xe2, 0xf5, 0x02, 0x31, 0x29, 0xe7, 0xee, 0xe6, 0xe0, 0x25, 0xf7,
    0x47, 0x3d, 0xe1, 0x52, 0x45, 0x34, 0x4a, 0x23, 0x2e, 0xb6, 0xd2, 0xfd,
    0xfa, 0xec, 0x04, 0x10, 0xe3, 0xd0, 0xe3, 0x3e, 0xf5, 0xca, 0xca, 0xe4,
    0xd9, 0xe9, 0x09, 0x01, 0x3f, 0x1e, 0x2d, 0x1f, 0xc3, 0xea, 0x15, 0xdb,
    0x12, 0xd9, 0xe3, 0x35, 0x04, 0xd4, 0xf9, 0x26, 0xe9, 0x00, 0xc0, 0xed,
    0x0f, 0x4a, 0x35, 0xf5, 0xe9, 0xd4, 0xd3, 0x2d, 0x1a, 0x0a, 0x09, 0xfa,
    0x1f, 0x07, 0xc1, 0xf3, 0xf6, 0x06, 0xca, 0x0a, 0xf2, 0xbc, 0x30, 0xf2,
    0x09, 0x2a, 0xc8, 0xd1, 0xe1, 0x2c, 0xe8, 0x10, 0x41, 0x18, 0xd0, 0x1b,
    0x57, 0x19, 0xfe, 0x4f, 0x31, 0x10, 0x28, 0x3f, 0xe7, 0x0a, 0x27, 0x12,
    0xe9, 0x1d, 0x4a, 0x48, 0x09, 0xfb, 0x1c, 0xed, 0xe9, 0x38, 0xdf, 0x5a,
    0x1b, 0x52, 0x13, 0xdc, 0x41, 0x0e, 0x1f, 0x51, 0x43, 0x05, 0x50, 0x1d,
    0x1d, 0x24, 0x0a, 0x09, 0xf6, 0xeb, 0x59, 0x60, 0x15, 0x4c, 0xfb, 0x63,
    0x14, 0x1a, 0x1d, 0x55, 0xf8, 0x4a, 0xfd, 0xc4, 0xdf, 0xed, 0xc7, 0x03,
    0x35, 0x27, 0xec, 0x51, 0x4b, 0x18, 0xfc, 0x53, 0x0e, 0xff, 0xe5, 0x27,
    0x1c, 0x42, 0xf2, 0xed, 0x56, 0xf1, 0x3a, 0x5a, 0xd6, 0xe2, 0xd9, 0xf7,
    0x15, 0x0d, 0x43, 0x09, 0x44, 0xf9, 0x4f, 0x1b, 0x19, 0xfe, 0xe4, 0x1b,
    0x22, 0x08, 0x70, 0x2d, 0x05, 0x0c, 0xe2, 0x0f, 0x26, 0xef, 0xe7, 0x31,
    0x3a, 0x33, 0x0f, 0x0d, 0x55, 0xf7, 0x16, 0x4d, 0x2d, 0x0b, 0x26, 0xe1,
    0x2f, 0xcc, 0xd6, 0xf8, 0x31, 0xbd, 0xe4, 0x0e, 0xef, 0x22, 0x2c, 0x15,
    0xd2, 0x21, 0x24, 0xd7, 0x1f, 0xce, 0x01, 0xd3, 0x14, 0x1a, 0xec, 0xfa,
    0xbe, 0xd0, 0x31, 0xfa, 0xbf, 0x0e, 0x16, 0xdb, 0xc3, 0xf3, 0x08, 0xff,
    0x33, 0x0c, 0x17, 0x0b, 0xf6, 0x0d, 0xbc, 0xfa, 0xc7, 0xc3, 0xfd, 0x02,
    0xc5, 0xe3, 0xee, 0x07, 0x11, 0x31, 0xf5, 0x1a, 0xe7, 0x2b, 0x24, 0xb8,
    0xf8, 0xc9, 0xdf, 0x0f, 0x17, 0xf3, 0xe7, 0xfb, 0x0c, 0x17, 0x13, 0xdd,
    0xf8, 0xcd, 0x44, 0xe5, 0xc6, 0x17, 0xc3, 0xc4, 0x43, 0xe9, 0x14, 0x29,
    0xd1, 0xfc, 0x22, 0xe7, 0x1d, 0x34, 0xcf, 0xbb, 0xc5, 0x22, 0xe8, 0x1a,
    0x21, 0x1c, 0x19, 0xe3, 0x11, 0xc2, 0xc7, 0xef, 0xdc, 0x31, 0x00, 0x34,
    0xee, 0x14, 0xd7, 0xda, 0x0b, 0x31, 0x22, 0xdd, 0xd4, 0x2c, 0x0e, 0xe8,
    0xda, 0xf8, 0x1f, 0xc2, 0xe4, 0xcb, 0x36, 0x00, 0x12, 0x30, 0xd3, 0x21,
    0xdd, 0xc2, 0x44, 0xf9, 0x0f, 0x0d, 0x04, 0xc8, 0x39, 0xf8, 0x16, 0x0c,
    0x35, 0x04, 0x10, 0x32, 0xf2, 0xc6, 0x2a, 0xec, 0x0e, 0x0e, 0x13, 0xf3,
    0xe4, 0xe3, 0x31, 0xb5, 0xfe, 0xc0, 0x29, 0x1d, 0xdb, 0xd7, 0xd3, 0xdf,
    0xe2, 0x32, 0x20, 0x03, 0xed, 0xd6, 0x1f, 0xe3, 0x20, 0xe8, 0xee, 0xbe,
    0xd0, 0x1d, 0xf3, 0x3a, 0x35, 0x26, 0x01, 0xb6, 0xab, 0xb5, 0x4c, 0x06,
    0x2d, 0xf2, 0x3c, 0xef, 0xb1, 0x1c, 0x38, 0x0e, 0x01, 0x1d, 0x44, 0x15,
    0xe3, 0xf1, 0xa1, 0x15, 0xfd, 0xdc, 0x27, 0x5e, 0x20, 0x3b, 0xf5, 0x29,
    0x0c, 0x2a, 0xb7, 0xf7, 0xe3, 0xa8, 0xce, 0x31, 0xcc, 0x02, 0x14, 0x3b,
    0xf8, 0x19, 0x08, 0xea, 0xe2, 0x51, 0xad, 0xfc, 0xde, 0x2a, 0xcc, 0x18,
    0x03, 0xee, 0xdd, 0xce, 0xb5, 0xbe, 0x13, 0xeb, 0xed, 0xfb, 0xad, 0x03,
    0x36, 0xf0, 0x0c, 0xd9, 0xe9, 0xbe, 0xf4, 0xb5, 0xf8, 0x42, 0x0f, 0x24,
    0x33, 0xdf, 0x1c, 0xee, 0xd8, 0xea, 0xe3, 0x17, 0xfb, 0xc9, 0xd3, 0xe2,
    0xe9, 0xfb, 0x0b, 0x11, 0x0d, 0xcc, 0x04, 0x20, 0x20, 0xff, 0x1c, 0x39,
    0xfa, 0x14, 0x35, 0xd9, 0x3e, 0xdd, 0xc5, 0xcc, 0x26, 0x1c, 0x37, 0x21,
    0x10, 0x35, 0x16, 0xfa, 0x57, 0xb7, 0x28, 0xd3, 0x10, 0x1b, 0x4f, 0x04,
    0xe5, 0x33, 0x58, 0xbc, 0x04, 0x03, 0xed, 0xfd, 0xf0, 0x34, 0xcd, 0xcb,
    0xf1, 0x31, 0x1e, 0x04, 0x6d, 0x34, 0xd6, 0x17, 0x69, 0x12, 0x49, 0xf9,
    0x0e, 0x0c, 0x09, 0x36, 0x54, 0xe5, 0x11, 0x52, 0xde, 0xe3, 0x02, 0xe1,
    0x57, 0x38, 0x08, 0x47, 0xec, 0x69, 0x10, 0x2a, 0xef, 0x24, 0x26, 0x22,
    0x43, 0xc0, 0x49, 0xf4, 0xf1, 0xf0, 0x3e, 0x5b, 0x2d, 0xe8, 0x1a, 0x16,
    0x28, 0xfb, 0x09, 0x5d, 0x33, 0x3e, 0x38, 0xef, 0xcc, 0xe5, 0x03, 0xcf,
    0xdd, 0x0b, 0xc2, 0xc8, 0x28, 0xc2, 0xd8, 0x27, 0x0e, 0x19, 0xfe, 0xd6,
    0x05, 0x1d, 0x38, 0x2b, 0xbe, 0x2d, 0xc3, 0x0f, 0xe5, 0xd2, 0xff, 0x1e,
    0x1e, 0xec, 0xbb, 0x37, 0xe2, 0x11, 0xc1, 0xca, 0xdf, 0xf9, 0xef, 0x21,
    0x08, 0xe0, 0x33, 0x09, 0x23, 0xe3, 0x21, 0x07, 0xee, 0x21, 0x1b, 0xd2,
    0x29, 0xbc, 0x1b, 0xd4, 0xaf, 0x15, 0x16, 0x0a, 0xd3, 0xd0, 0x02, 0x22,
    0x26, 0x0a, 0xc3, 0x30, 0x1d, 0x19, 0xc3, 0x0b, 0xfa, 0x09, 0xc6, 0x34,
    0xf2, 0xbd, 0x06, 0xf1, 0xc8, 0xda, 0x19, 0x12, 0xbf, 0xc2, 0x21, 0xeb,
    0x2a, 0x31, 0x24, 0xe6, 0x2c, 0x13, 0xd8, 0xe4, 0xe5, 0xdf, 0x1c, 0xde,
    0xf5, 0xfd, 0xf5, 0x0d, 0x17, 0x01, 0x1c, 0x05, 0x1b, 0x0c, 0x19, 0x25,
    0x10, 0xc4, 0xc1, 0xfd, 0xbd, 0xe4, 0x28, 0xc9, 0xfd, 0x33, 0x0a, 0xeb,
    0xfc, 0xbe, 0x22, 0xd6, 0x27, 0xf7, 0x2c, 0xe7, 0x45, 0x2e, 0x09, 0x3a,
    0xfa, 0x5e, 0xe8, 0x68, 0x04, 0x07, 0xde, 0xd8, 0x1e, 0x5b, 0x48, 0xe1,
    0x04, 0x19, 0xdd, 0xd1, 0x18, 0x07, 0x21, 0x14, 0x1d, 0xeb, 0x03, 0xe6,
    0x03, 0xf7, 0x53, 0xf8, 0xef, 0x05, 0xe8, 0xe8, 0x10, 0x28, 0x49, 0xd6,
    0xfd, 0xdb, 0x0c, 0x1c, 0x1b, 0x18, 0x11, 0x27, 0x48, 0x4f, 0x4f, 0x27,
    0xf8, 0x28, 0xf3, 0x11, 0x29, 0x40, 0x17, 0xdd, 0xf0, 0xaf, 0x56, 0x39,
    0x23, 0xec, 0x1c, 0x37, 0xd3, 0xfd, 0x49, 0xe7, 0x07, 0xf3, 0x1d, 0xef,
    0xf0, 0xc9, 0xe6, 0x31, 0x3e, 0x24, 0xb2, 0x4d, 0x27, 0x21, 0x05, 0xe5,
    0x37, 0x14, 0x81, 0xf4, 0xcf, 0xee, 0xe3, 0x33, 0xf1, 0xb8, 0xc8, 0x11,
    0x01, 0x07, 0xe4, 0xe4, 0xfe, 0x35, 0xd2, 0xeb, 0x2f, 0x1d, 0x28, 0xdb,
    0x5a, 0x18, 0xe5, 0xf7, 0x31, 0xc9, 0x2b, 0xe1, 0xdf, 0x1d, 0x21, 0xfb,
    0x37, 0xec, 0xcb, 0xc0, 0x2e, 0xec, 0x2d, 0x19, 0xf6, 0xf2, 0x04, 0xd3,
    0x01, 0x07, 0xd9, 0xe8, 0x25, 0xe7, 0x28, 0x13, 0x3b, 0x01, 0x00, 0xf1,
    0xdf, 0xd5, 0xd6, 0xcc, 0x31, 0x03, 0xcc, 0xce, 0x0a, 0xc1, 0x01, 0x0c,
    0x3a, 0x38, 0xc7, 0x02, 0xd4, 0xca, 0x05, 0xf9, 0xe3, 0xd2, 0xf7, 0xd5,
    0xdb, 0x00, 0xe4, 0x19, 0xf5, 0xf8, 0xd3, 0x11, 0x0c, 0x36, 0xf2, 0x39,
    0xff, 0xf3, 0x3b, 0x3e, 0xdd, 0x54, 0x10, 0xd7, 0x22, 0x0a, 0xfc, 0xea,
    0x05, 0x50, 0x16, 0xf8, 0x4f, 0x2e, 0xda, 0x27, 0x48, 0x3b, 0x16, 0xde,
    0x14, 0x12, 0x07, 0x25, 0xf2, 0xf2, 0xe6, 0x2f, 0x42, 0xc7, 0x41, 0x2d,
    0xee, 0x1e, 0xca, 0x3c, 0x0d, 0x79, 0x3c, 0xe2, 0x42, 0xec, 0xee, 0x4a,
    0x1c, 0xdf, 0x37, 0x07, 0x24, 0xd9, 0x09, 0x13, 0xe9, 0xe8, 0x15, 0x35,
    0x53, 0x24, 0xfc, 0xf0, 0x40, 0x2c, 0x4e, 0x14, 0xc3, 0xb2, 0x2a, 0x4c,
    0x07, 0xec, 0x19, 0x20, 0xce, 0xe1, 0x75, 0x30, 0xc5, 0xdf, 0x0a, 0x10,
    0x12, 0x3a, 0xd4, 0xe5, 0xee, 0x33, 0xca, 0xf8, 0xc4, 0x3c, 0x26, 0xea,
    0x14, 0xf3, 0xb5, 0xec, 0x0d, 0xe3, 0x34, 0x32, 0xb2, 0x17, 0xd5, 0x3d,
    0x1d, 0x11, 0x11, 0x18, 0x1f, 0x35, 0xfd, 0xe9, 0xcd, 0xf8, 0x01, 0xc2,
    0x2c, 0x16, 0x05, 0x14, 0xed, 0xf0, 0xf3, 0x04, 0xc5, 0xe1, 0x04, 0xd5,
    0x31, 0x09, 0xe9, 0xc0, 0x1b, 0x1c, 0xf5, 0x01, 0x45, 0x32, 0xf5, 0x32,
    0xfd, 0xd6, 0xde, 0x1d, 0x09, 0x17, 0xd5, 0x00, 0x33, 0x20, 0x4b, 0xc8,
    0x11, 0x36, 0xd9, 0x52, 0x3a, 0xd0, 0xef, 0x17, 0xf2, 0xf3, 0xe5, 0x58,
    0xfc, 0x4f, 0x26, 0x41, 0xf2, 0xfa, 0x44, 0x40, 0x40, 0x21, 0x1a, 0x54,
    0x11, 0xde, 0x51, 0x13, 0x27, 0x28, 0x45, 0x4f, 0xe1, 0x3d, 0x15, 0x24,
    0x51, 0xfa, 0x0a, 0xdc, 0xc1, 0x0c, 0xe2, 0x1b, 0xdb, 0x0f, 0xe8, 0x2c,
    0x02, 0x26, 0x50, 0x0f, 0xee, 0xfd, 0xee, 0xbb, 0x2e, 0xcd, 0x1d, 0xbd,
    0x24, 0x06, 0xe5, 0x07, 0x3a, 0x03, 0xbd, 0xd0, 0x0f, 0x1d, 0xe7, 0x13,
    0xed, 0xe4, 0xda, 0xd1, 0xef, 0x1f, 0xc3, 0x08, 0x28, 0xf4, 0xc3, 0xfa,
    0x31, 0x2d, 0x1f, 0x27, 0xe4, 0xfa, 0xc3, 0x1f, 0xd6, 0x2a, 0x10, 0x05,
    0xda, 0xfd, 0xc5, 0xec, 0xe7, 0x16, 0x30, 0xd3, 0xe6, 0x27, 0x03, 0x1b,
    0x40, 0x28, 0xc2, 0xf5, 0x07, 0xeb, 0xe5, 0x2a, 0x2a, 0x28, 0xe7, 0x1f,
    0xfa, 0x16, 0x1a, 0xd7, 0xe9, 0x13, 0x46, 0x34, 0xf2, 0x4b, 0x47, 0x13,
    0xec, 0xd7, 0xd8, 0x05, 0x24, 0x44, 0x19, 0x49, 0xde, 0x5c, 0x5b, 0xd9,
    0xfd, 0xf1, 0xee, 0x01, 0x00, 0xd5, 0x2d, 0x42, 0x48, 0xda, 0x09, 0xe7,
    0x44, 0x07, 0x2f, 0x0c, 0x39, 0x3b, 0x24, 0x2a, 0x22, 0x2a, 0x47, 0x33,
    0xc9, 0xf9, 0x1c, 0x22, 0x20, 0xe6, 0x17, 0x06, 0x02, 0xf3, 0x7b, 0xb6,
    0x04, 0x36, 0xe1, 0xbf, 0x32, 0xe7, 0xe8, 0x0f, 0xda, 0xc6, 0x1d, 0x23,
    0xcd, 0x00, 0xcf, 0x06, 0x10, 0x12, 0xe5, 0xbc, 0xe7, 0xe0, 0xfc, 0xe3,
    0x19, 0x08, 0xd3, 0xfd, 0xf5, 0x0b, 0x4a, 0xc7, 0xc9, 0xee, 0x0a, 0xfc,
    0xf5, 0x2f, 0xd4, 0xdb, 0xca, 0x11, 0x48, 0xf8, 0x36, 0x17, 0xff, 0xd7,
    0x3b, 0x0b, 0x50, 0x35, 0x1e, 0x0b, 0xe1, 0x25, 0xfc, 0xe0, 0xd3, 0x21,
    0x35, 0xea, 0xed, 0x2e, 0xdc, 0xe4, 0x54, 0x10, 0xda, 0x00, 0x38, 0x27,
    0x4e, 0x0e, 0x0a, 0x4a, 0xf7, 0x2c, 0xd7, 0x19, 0x30, 0xde, 0xf0, 0xee,
    0xe8, 0x37, 0x25, 0x28, 0xfb, 0xb2, 0x13, 0xe9, 0xed, 0xf4, 0xec, 0xc2,
    0xed, 0x27, 0xf5, 0x29, 0xca, 0x16, 0xf6, 0xb2, 0xf0, 0xdc, 0xe0, 0xfe,
    0x3d, 0xff, 0xd3, 0xd2, 0xf3, 0xf3, 0xad, 0x18, 0x17, 0x07, 0x00, 0xe8,
    0x2a, 0xcf, 0xdb, 0xbf, 0x04, 0xf0, 0x02, 0x0a, 0x20, 0xf4, 0xfa, 0x1c,
    0xd9, 0xc8, 0xcd, 0xce, 0x33, 0xbf, 0xcd, 0xfb, 0xf0, 0x28, 0xf5, 0x03,
    0x21, 0xe5, 0x06, 0x00, 0xb5, 0x29, 0x27, 0xdd, 0x20, 0x28, 0xd9, 0x0e,
    0xed, 0xb7, 0xdd, 0xd6, 0x0d, 0xd4, 0x13, 0x2d, 0xce, 0x1f, 0xcd, 0xd3,
    0x16, 0x31, 0xfb, 0x05, 0xc3, 0x0b, 0x0e, 0x29, 0x2e, 0x0a, 0xf4, 0x1a,
    0x0f, 0xd9, 0x4a, 0x0c, 0x3c, 0x3a, 0x26, 0x15, 0xdf, 0xe1, 0xf3, 0x38,
    0x87, 0xd0, 0x64, 0x10, 0x17, 0x21, 0xd6, 0xe0, 0x32, 0xd1, 0xc2, 0x35,
    0xdd, 0xd6, 0xe8, 0x0b, 0x1f, 0xe0, 0xf1, 0xe1, 0x27, 0x28, 0xd3, 0xd6,
    0xcb, 0x1d, 0xeb, 0x32, 0x16, 0xf7, 0xd6, 0xcc, 0xd2, 0x53, 0xfd, 0xdb,
    0xd0, 0x2e, 0xdf, 0xc4, 0x51, 0xfc, 0xd5, 0x20, 0xe0, 0xe9, 0xe9, 0x2a,
    0x02, 0xc6, 0x0a, 0xd9, 0xa6, 0xfe, 0xff, 0xff, 0x04, 0x00, 0x00, 0x00,
    0x00, 0x01, 0x00, 0x00, 0x54, 0xfc, 0xff, 0xff, 0x59, 0xfa, 0xff, 0xff,
    0x91, 0x07, 0x00, 0x00, 0x6d, 0xfc, 0xff, 0xff, 0x8c, 0x0d, 0x00, 0x00,
    0xf1, 0x0b, 0x00, 0x00, 0x6c, 0xfb, 0xff, 0xff, 0x94, 0xff, 0xff, 0xff,
    0x0d, 0x17, 0x00, 0x00, 0x30, 0x0e, 0x00, 0x00, 0x58, 0xfe, 0xff, 0xff,
    0x50, 0x0c, 0x00, 0x00, 0x2f, 0x11, 0x00, 0x00, 0x15, 0xfe, 0xff, 0xff,
    0x73, 0xfe, 0xff, 0xff, 0xd3, 0x0f, 0x00, 0x00, 0x36, 0xfb, 0xff, 0xff,
    0x67, 0x17, 0x00, 0x00, 0xc1, 0x0e, 0x00, 0x00, 0xea, 0x0a, 0x00, 0x00,
    0x77, 0x0a, 0x00, 0x00, 0x56, 0xfc, 0xff, 0xff, 0x62, 0x0e, 0x00, 0x00,
    0x6f, 0x0b, 0x00, 0x00, 0x99, 0xfe, 0xff, 0xff, 0xe5, 0xfb, 0xff, 0xff,
    0x67, 0x0c, 0x00, 0x00, 0x46, 0x00, 0x00, 0x00, 0x84, 0x0b, 0x00, 0x00,
    0x38, 0xfb, 0xff, 0xff, 0xf3, 0x0b, 0x00, 0x00, 0x07, 0xfa, 0xff, 0xff,
    0x60, 0xfc, 0xff, 0xff, 0x9f, 0x0a, 0x00, 0x00, 0xf4, 0x0c, 0x00, 0x00,
    0x4d, 0x0c, 0x00, 0x00, 0xaa, 0x0a, 0x00, 0x00, 0xda, 0x09, 0x00, 0x00,
    0x72, 0x23, 0x00, 0x00, 0x0d, 0x0b, 0x00, 0x00, 0x4f, 0x0b, 0x00, 0x00,
    0xdc, 0xff, 0xff, 0xff, 0xc5, 0x0d, 0x00, 0x00, 0xbc, 0x0e, 0x00, 0x00,
    0xec, 0xf8, 0xff, 0xff, 0x55, 0x00, 0x00, 0x00, 0x62, 0xfb, 0xff, 0xff,
    0x16, 0x12, 0x00, 0x00, 0xa3, 0xfc, 0xff, 0xff, 0x19, 0x0e, 0x00, 0x00,
    0xce, 0xfb, 0xff, 0xff, 0xf1, 0xf9, 0xff, 0xff, 0x4a, 0x0b, 0x00, 0x00,
    0xbe, 0x25, 0x00, 0x00, 0x7d, 0xfd, 0xff, 0xff, 0x86, 0x00, 0x00, 0x00,
    0x47, 0x15, 0x00, 0x00, 0x2d, 0x0c, 0x00, 0x00, 0x9d, 0xfd, 0xff, 0xff,
    0xb8, 0x0a, 0x00, 0x00, 0x5c, 0x05, 0x00, 0x00, 0x24, 0x01, 0x00, 0x00,
    0x1e, 0xfa, 0xff, 0xff, 0x55, 0x11, 0x00, 0x00, 0xb2, 0xff, 0xff, 0xff,
    0x04, 0x00, 0x00, 0x00, 0x40, 0x00, 0x00, 0x00, 0x3a, 0x1c, 0x63, 0x47,
    0xbd, 0xa5, 0x05, 0x27, 0x6e, 0xc1, 0x46, 0xc4, 0xe0, 0x23, 0x19, 0xa8,
    0x0b, 0x2f, 0x98, 0xcb, 0x9c, 0x43, 0xd2, 0xd0, 0x24, 0x3d, 0xcf, 0x39,
    0xb6, 0x3a, 0xa4, 0x2c, 0x47, 0xa5, 0xda, 0xd1, 0xaf, 0xb1, 0x57, 0xa8,
    0xdf, 0x1f, 0xe3, 0xad, 0x06, 0x2e, 0x29, 0x3b, 0xb9, 0xb5, 0x2f, 0x1a,
    0xa4, 0x58, 0x2c, 0xec, 0x7f, 0x9b, 0x1d, 0xc1, 0x58, 0x4d, 0x0c, 0x6c,
    0x00, 0x00, 0x06, 0x00, 0x08, 0x00, 0x04, 0x00, 0x06, 0x00, 0x00, 0x00,
    0x04, 0x00, 0x00, 0x00, 0x04, 0x00, 0x00, 0x00, 0x8b, 0xfd, 0xff, 0xff,
    0x4c, 0xff, 0xff, 0xff, 0x50, 0xff, 0xff, 0xff, 0x0f, 0x00, 0x00, 0x00,
    0x4d, 0x4c, 0x49, 0x52, 0x20, 0x43, 0x6f, 0x6e, 0x76, 0x65, 0x72, 0x74,
    0x65, 0x64, 0x2e, 0x00, 0x01, 0x00, 0x00, 0x00, 0x14, 0x00, 0x00, 0x00,
    0x00, 0x00, 0x0e, 0x00, 0x18, 0x00, 0x14, 0x00, 0x10, 0x00, 0x0c, 0x00,
    0x08, 0x00, 0x04, 0x00, 0x0e, 0x00, 0x00, 0x00, 0x14, 0x00, 0x00, 0x00,
    0x1c, 0x00, 0x00, 0x00, 0x54, 0x01, 0x00, 0x00, 0x58, 0x01, 0x00, 0x00,
    0x5c, 0x01, 0x00, 0x00, 0x04, 0x00, 0x00, 0x00, 0x6d, 0x61, 0x69, 0x6e,
    0x00, 0x00, 0x00, 0x00, 0x05, 0x00, 0x00, 0x00, 0x1c, 0x01, 0x00, 0x00,
    0xcc, 0x00, 0x00, 0x00, 0x80, 0x00, 0x00, 0x00, 0x34, 0x00, 0x00, 0x00,
    0x10, 0x00, 0x00, 0x00, 0x00, 0x00, 0x0a, 0x00, 0x10, 0x00, 0x0c, 0x00,
    0x08, 0x00, 0x04, 0x00, 0x0a, 0x00, 0x00, 0x00, 0x0c, 0x00, 0x00, 0x00,
    0x10, 0x00, 0x00, 0x00, 0x02, 0x00, 0x00, 0x00, 0x01, 0x00, 0x00, 0x00,
    0x0b, 0x00, 0x00, 0x00, 0x01, 0x00, 0x00, 0x00, 0x0a, 0x00, 0x00, 0x00,
    0xc6, 0xff, 0xff, 0xff, 0x18, 0x00, 0x00, 0x00, 0x00, 0x00, 0x00, 0x08,
    0x14, 0x00, 0x00, 0x00, 0x18, 0x00, 0x00, 0x00, 0x01, 0x00, 0x00, 0x00,
    0x04, 0x00, 0x04, 0x00, 0x04, 0x00, 0x00, 0x00, 0x01, 0x00, 0x00, 0x00,
    0x0a, 0x00, 0x00, 0x00, 0x03, 0x00, 0x00, 0x00, 0x09, 0x00, 0x00, 0x00,
    0x02, 0x00, 0x00, 0x00, 0x01, 0x00, 0x00, 0x00, 0x00, 0x00, 0x0e, 0x00,
    0x18, 0x00, 0x14, 0x00, 0x10, 0x00, 0x0c, 0x00, 0x0b, 0x00, 0x04, 0x00,
    0x0e, 0x00, 0x00, 0x00, 0x14, 0x00, 0x00, 0x00, 0x00, 0x00, 0x00, 0x08,
    0x14, 0x00, 0x00, 0x00, 0x18, 0x00, 0x00, 0x00, 0x01, 0x00, 0x00, 0x00,
    0xb6, 0xff, 0xff, 0xff, 0x00, 0x00, 0x00, 0x01, 0x01, 0x00, 0x00, 0x00,
    0x09, 0x00, 0x00, 0x00, 0x03, 0x00, 0x00, 0x00, 0x08, 0x00, 0x00, 0x00,
    0x04, 0x00, 0x00, 0x00, 0x03, 0x00, 0x00, 0x00, 0x00, 0x00, 0x0e, 0x00,
    0x1a, 0x00, 0x14, 0x00, 0x10, 0x00, 0x0c, 0x00, 0x0b, 0x00, 0x04, 0x00,
    0x0e, 0x00, 0x00, 0x00, 0x1c, 0x00, 0x00, 0x00, 0x00, 0x00, 0x00, 0x08,
    0x1c, 0x00, 0x00, 0x00, 0x20, 0x00, 0x00, 0x00, 0x01, 0x00, 0x00, 0x00,
    0x00, 0x00, 0x06, 0x00, 0x08, 0x00, 0x07, 0x00, 0x06, 0x00, 0x00, 0x00,
    0x00, 0x00, 0x00, 0x01, 0x01, 0x00, 0x00, 0x00, 0x08, 0x00, 0x00, 0x00,
    0x03, 0x00, 0x00, 0x00, 0x07, 0x00, 0x00, 0x00, 0x06, 0x00, 0x00, 0x00,
    0x05, 0x00, 0x00, 0x00, 0x00, 0x00, 0x0a, 0x00, 0x0c, 0x00, 0x00, 0x00,
    0x08, 0x00, 0x04, 0x00, 0x0a, 0x00, 0x00, 0x00, 0x08, 0x00, 0x00, 0x00,
    0x0c, 0x00, 0x00, 0x00, 0x01, 0x00, 0x00, 0x00, 0x07, 0x00, 0x00, 0x00,
    0x01, 0x00, 0x00, 0x00, 0x00, 0x00, 0x00, 0x00, 0x01, 0x00, 0x00, 0x00,
    0x0b, 0x00, 0x00, 0x00, 0x01, 0x00, 0x00, 0x00, 0x00, 0x00, 0x00, 0x00,
    0x0c, 0x00, 0x00, 0x00, 0xb4, 0x06, 0x00, 0x00, 0x14, 0x06, 0x00, 0x00,
    0x80, 0x05, 0x00, 0x00, 0xf4, 0x04, 0x00, 0x00, 0x78, 0x04, 0x00, 0x00,
    0xec, 0x03, 0x00, 0x00, 0x70, 0x03, 0x00, 0x00, 0xfc, 0x02, 0x00, 0x00,
    0x20, 0x02, 0x00, 0x00, 0x3c, 0x01, 0x00, 0x00, 0x80, 0x00, 0x00, 0x00,
    0x04, 0x00, 0x00, 0x00, 0x92, 0xf9, 0xff, 0xff, 0x00, 0x00, 0x00, 0x01,
    0x18, 0x00, 0x00, 0x00, 0x20, 0x00, 0x00, 0x00, 0x3c, 0x00, 0x00, 0x00,
    0x0c, 0x00, 0x00, 0x00, 0x00, 0x00, 0x00, 0x09, 0x50, 0x00, 0x00, 0x00,
    0x02, 0x00, 0x00, 0x00, 0xff, 0xff, 0xff, 0xff, 0x01, 0x00, 0x00, 0x00,
    0x7c, 0xf9, 0xff, 0xff, 0x08, 0x00, 0x00, 0x00, 0x10, 0x00, 0x00, 0x00,
    0x01, 0x00, 0x00, 0x00, 0x80, 0xff, 0xff, 0xff, 0xff, 0xff, 0xff, 0xff,
    0x01, 0x00, 0x00, 0x00, 0x00, 0x00, 0x80, 0x3b, 0x19, 0x00, 0x00, 0x00,
    0x53, 0x74, 0x61, 0x74, 0x65, 0x66, 0x75, 0x6c, 0x50, 0x61, 0x72, 0x74,
    0x69, 0x74, 0x69, 0x6f, 0x6e, 0x65, 0x64, 0x43, 0x61, 0x6c, 0x6c, 0x3a,
    0x30, 0x00, 0x00, 0x00, 0x02, 0x00, 0x00, 0x00, 0x01, 0x00, 0x00, 0x00,
    0x01, 0x00, 0x00, 0x00, 0x0a, 0xfa, 0xff, 0xff, 0x00, 0x00, 0x00, 0x01,
    0x18, 0x00, 0x00, 0x00, 0x20, 0x00, 0x00, 0x00, 0x40, 0x00, 0x00, 0x00,
    0x0b, 0x00, 0x00, 0x00, 0x00, 0x00, 0x00, 0x09, 0x90, 0x00, 0x00, 0x00,
    0x02, 0x00, 0x00, 0x00, 0xff, 0xff, 0xff, 0xff, 0x01, 0x00, 0x00, 0x00,
    0xf4, 0xf9, 0xff, 0xff, 0x08, 0x00, 0x00, 0x00, 0x14, 0x00, 0x00, 0x00,
    0x01, 0x00, 0x00, 0x00, 0x7f, 0x00, 0x00, 0x00, 0x00, 0x00, 0x00, 0x00,
    0x00, 0x00, 0x00, 0x00, 0x01, 0x00, 0x00, 0x00, 0x05, 0x33, 0xae, 0x3d,
    0x56, 0x00, 0x00, 0x00, 0x64, 0x65, 0x6e, 0x73, 0x65, 0x5f, 0x62, 0x6f,
    0x77, 0x5f, 0x62, 0x69, 0x6e, 0x61, 0x72, 0x79, 0x5f, 0x63, 0x6c, 0x61,
    0x73, 0x73, 0x69, 0x66, 0x69, 0x65, 0x72, 0x2f, 0x64, 0x65, 0x6e, 0x73,
    0x65, 0x5f, 0x32, 0x2f, 0x4d, 0x61, 0x74, 0x4d, 0x75, 0x6c, 0x3b, 0x64,
    0x65, 0x6e, 0x73, 0x65, 0x5f, 0x62, 0x6f, 0x77, 0x5f, 0x62, 0x69, 0x6e,
    0x61, 0x72, 0x79, 0x5f, 0x63, 0x6c, 0x61, 0x73, 0x73, 0x69, 0x66, 0x69,
    0x65, 0x72, 0x2f, 0x64, 0x65, 0x6e, 0x73, 0x65, 0x5f, 0x32, 0x2f, 0x42,
    0x69, 0x61, 0x73, 0x41, 0x64, 0x64, 0x00, 0x00, 0x02, 0x00, 0x00, 0x00,
    0x01, 0x00, 0x00, 0x00, 0x01, 0x00, 0x00, 0x00, 0xc2, 0xfa, 0xff, 0xff,
    0x00, 0x00, 0x00, 0x01, 0x18, 0x00, 0x00, 0x00, 0x20, 0x00, 0x00, 0x00,
    0x40, 0x00, 0x00, 0x00, 0x0a, 0x00, 0x00, 0x00, 0x00, 0x00, 0x00, 0x09,
    0xb8, 0x00, 0x00, 0x00, 0x02, 0x00, 0x00, 0x00, 0xff, 0xff, 0xff, 0xff,
    0x40, 0x00, 0x00, 0x00, 0xac, 0xfa, 0xff, 0xff, 0x08, 0x00, 0x00, 0x00,
    0x14, 0x00, 0x00, 0x00, 0x01, 0x00, 0x00, 0x00, 0x80, 0xff, 0xff, 0xff,
    0xff, 0xff, 0xff, 0xff, 0x00, 0x00, 0x00, 0x00, 0x01, 0x00, 0x00, 0x00,
    0xa1, 0xfc, 0x94, 0x3c, 0x7f, 0x00, 0x00, 0x00, 0x64, 0x65, 0x6e, 0x73,
    0x65, 0x5f, 0x62, 0x6f, 0x77, 0x5f, 0x62, 0x69, 0x6e, 0x61, 0x72, 0x79,
    0x5f, 0x63, 0x6c, 0x61, 0x73, 0x73, 0x69, 0x66, 0x69, 0x65, 0x72, 0x2f,
    0x64, 0x65, 0x6e, 0x73, 0x65, 0x5f, 0x31, 0x2f, 0x4d, 0x61, 0x74, 0x4d,
    0x75, 0x6c, 0x3b, 0x64, 0x65, 0x6e, 0x73, 0x65, 0x5f, 0x62, 0x6f, 0x77,
    0x5f, 0x62, 0x69, 0x6e, 0x61, 0x72, 0x79, 0x5f, 0x63, 0x6c, 0x61, 0x73,
    0x73, 0x69, 0x66, 0x69, 0x65, 0x72, 0x2f, 0x64, 0x65, 0x6e, 0x73, 0x65,
    0x5f, 0x31, 0x2f, 0x52, 0x65, 0x6c, 0x75, 0x3b, 0x64, 0x65, 0x6e, 0x73,
    0x65, 0x5f, 0x62, 0x6f, 0x77, 0x5f, 0x62, 0x69, 0x6e, 0x61, 0x72, 0x79,
    0x5f, 0x63, 0x6c, 0x61, 0x73, 0x73, 0x69, 0x66, 0x69, 0x65, 0x72, 0x2f,
    0x64, 0x65, 0x6e, 0x73, 0x65, 0x5f, 0x31, 0x2f, 0x42, 0x69, 0x61, 0x73,
    0x41, 0x64, 0x64, 0x00, 0x02, 0x00, 0x00, 0x00, 0x01, 0x00, 0x00, 0x00,
    0x40, 0x00, 0x00, 0x00, 0xa2, 0xfb, 0xff, 0xff, 0x00, 0x00, 0x00, 0x01,
    0x18, 0x00, 0x00, 0x00, 0x20, 0x00, 0x00, 0x00, 0x3c, 0x00, 0x00, 0x00,
    0x09, 0x00, 0x00, 0x00, 0x00, 0x00, 0x00, 0x09, 0xb0, 0x00, 0x00, 0x00,
    0x02, 0x00, 0x00, 0x00, 0xff, 0xff, 0xff, 0xff, 0x40, 0x00, 0x00, 0x00,
    0x8c, 0xfb, 0xff, 0xff, 0x08, 0x00, 0x00, 0x00, 0x10, 0x00, 0x00, 0x00,
    0x01, 0x00, 0x00, 0x00, 0x80, 0xff, 0xff, 0xff, 0xff, 0xff, 0xff, 0xff,
    0x01, 0x00, 0x00, 0x00, 0x6d, 0x26, 0xb3, 0x3b, 0x79, 0x00, 0x00, 0x00,
    0x64, 0x65, 0x6e, 0x73, 0x65, 0x5f, 0x62, 0x6f, 0x77, 0x5f, 0x62, 0x69,
    0x6e, 0x61, 0x72, 0x79, 0x5f, 0x63, 0x6c, 0x61, 0x73, 0x73, 0x69, 0x66,
    0x69, 0x65, 0x72, 0x2f, 0x64, 0x65, 0x6e, 0x73, 0x65, 0x2f, 0x4d, 0x61,
    0x74, 0x4d, 0x75, 0x6c, 0x3b, 0x64, 0x65, 0x6e, 0x73, 0x65, 0x5f, 0x62,
    0x6f, 0x77, 0x5f, 0x62, 0x69, 0x6e, 0x61, 0x72, 0x79, 0x5f, 0x63, 0x6c,
    0x61, 0x73, 0x73, 0x69, 0x66, 0x69, 0x65, 0x72, 0x2f, 0x64, 0x65, 0x6e,
    0x73, 0x65, 0x2f, 0x52, 0x65, 0x6c, 0x75, 0x3b, 0x64, 0x65, 0x6e, 0x73,
    0x65, 0x5f, 0x62, 0x6f, 0x77, 0x5f, 0x62, 0x69, 0x6e, 0x61, 0x72, 0x79,
    0x5f, 0x63, 0x6c, 0x61, 0x73, 0x73, 0x69, 0x66, 0x69, 0x65, 0x72, 0x2f,
    0x64, 0x65, 0x6e, 0x73, 0x65, 0x2f, 0x42, 0x69, 0x61, 0x73, 0x41, 0x64,
    0x64, 0x00, 0x00, 0x00, 0x02, 0x00, 0x00, 0x00, 0x01, 0x00, 0x00, 0x00,
    0x40, 0x00, 0x00, 0x00, 0x7a, 0xfc, 0xff, 0xff, 0x00, 0x00, 0x00, 0x01,
    0x18, 0x00, 0x00, 0x00, 0x20, 0x00, 0x00, 0x00, 0x40, 0x00, 0x00, 0x00,
    0x08, 0x00, 0x00, 0x00, 0x00, 0x00, 0x00, 0x09, 0x48, 0x00, 0x00, 0x00,
    0x02, 0x00, 0x00, 0x00, 0xff, 0xff, 0xff, 0xff, 0x5e, 0x00, 0x00, 0x00,
    0x64, 0xfc, 0xff, 0xff, 0x08, 0x00, 0x00, 0x00, 0x14, 0x00, 0x00, 0x00,
    0x01, 0x00, 0x00, 0x00, 0x80, 0xff, 0xff, 0xff, 0xff, 0xff, 0xff, 0xff,
    0x00, 0x00, 0x00, 0x00, 0x01, 0x00, 0x00, 0x00, 0xc1, 0xc0, 0x40, 0x3c,
    0x0c, 0x00, 0x00, 0x00, 0x74, 0x66, 0x6c, 0x2e, 0x71, 0x75, 0x61, 0x6e,
    0x74, 0x69, 0x7a, 0x65, 0x00, 0x00, 0x00, 0x00, 0x02, 0x00, 0x00, 0x00,
    0x01, 0x00, 0x00, 0x00, 0x5e, 0x00, 0x00, 0x00, 0x86, 0xfd, 0xff, 0xff,
    0x00, 0x00, 0x00, 0x01, 0x14, 0x00, 0x00, 0x00, 0x30, 0x00, 0x00, 0x00,
    0x07, 0x00, 0x00, 0x00, 0x00, 0x00, 0x00, 0x09, 0x54, 0x00, 0x00, 0x00,
    0xc4, 0xfc, 0xff, 0xff, 0x08, 0x00, 0x00, 0x00, 0x10, 0x00, 0x00, 0x00,
    0x01, 0x00, 0x00, 0x00, 0x00, 0x00, 0x00, 0x00, 0x00, 0x00, 0x00, 0x00,
    0x01, 0x00, 0x00, 0x00, 0xfc, 0x8f, 0x72, 0x3b, 0x28, 0x00, 0x00, 0x00,
    0x64, 0x65, 0x6e, 0x73, 0x65, 0x5f, 0x62, 0x6f, 0x77, 0x5f, 0x62, 0x69,
    0x6e, 0x61, 0x72, 0x79, 0x5f, 0x63, 0x6c, 0x61, 0x73, 0x73, 0x69, 0x66,
    0x69, 0x65, 0x72, 0x2f, 0x64, 0x65, 0x6e, 0x73, 0x65, 0x2f, 0x4d, 0x61,
    0x74, 0x4d, 0x75, 0x6c, 0x00, 0x00, 0x00, 0x00, 0x02, 0x00, 0x00, 0x00,
    0x40, 0x00, 0x00, 0x00, 0x5e, 0x00, 0x00, 0x00, 0xfe, 0xfd, 0xff, 0xff,
    0x00, 0x00, 0x00, 0x01, 0x14, 0x00, 0x00, 0x00, 0x34, 0x00, 0x00, 0x00,
    0x06, 0x00, 0x00, 0x00, 0x00, 0x00, 0x00, 0x02, 0x68, 0x00, 0x00, 0x00,
    0x3c, 0xfd, 0xff, 0xff, 0x08, 0x00, 0x00, 0x00, 0x14, 0x00, 0x00, 0x00,
    0x01, 0x00, 0x00, 0x00, 0x00, 0x00, 0x00, 0x00, 0x00, 0x00, 0x00, 0x00,
    0x00, 0x00, 0x00, 0x00, 0x01, 0x00, 0x00, 0x00, 0xa0, 0xa2, 0x36, 0x38,
    0x38, 0x00, 0x00, 0x00, 0x64, 0x65, 0x6e, 0x73, 0x65, 0x5f, 0x62, 0x6f,
    0x77, 0x5f, 0x62, 0x69, 0x6e, 0x61, 0x72, 0x79, 0x5f, 0x63, 0x6c, 0x61,
    0x73, 0x73, 0x69, 0x66, 0x69, 0x65, 0x72, 0x2f, 0x64, 0x65, 0x6e, 0x73,
    0x65, 0x2f, 0x42, 0x69, 0x61, 0x73, 0x41, 0x64, 0x64, 0x2f, 0x52, 0x65,
    0x61, 0x64, 0x56, 0x61, 0x72, 0x69, 0x61, 0x62, 0x6c, 0x65, 0x4f, 0x70,
    0x00, 0x00, 0x00, 0x00, 0x01, 0x00, 0x00, 0x00, 0x40, 0x00, 0x00, 0x00,
    0x86, 0xfe, 0xff, 0xff, 0x00, 0x00, 0x00, 0x01, 0x14, 0x00, 0x00, 0x00,
    0x30, 0x00, 0x00, 0x00, 0x05, 0x00, 0x00, 0x00, 0x00, 0x00, 0x00, 0x09,
    0x54, 0x00, 0x00, 0x00, 0xc4, 0xfd, 0xff, 0xff, 0x08, 0x00, 0x00, 0x00,
    0x10, 0x00, 0x00, 0x00, 0x01, 0x00, 0x00, 0x00, 0x00, 0x00, 0x00, 0x00,
    0x00, 0x00, 0x00, 0x00, 0x01, 0x00, 0x00, 0x00, 0x60, 0x5f, 0x5e, 0x3b,
    0x2a, 0x00, 0x00, 0x00, 0x64, 0x65, 0x6e, 0x73, 0x65, 0x5f, 0x62, 0x6f,
    0x77, 0x5f, 0x62, 0x69, 0x6e, 0x61, 0x72, 0x79, 0x5f, 0x63, 0x6c, 0x61,
    0x73, 0x73, 0x69, 0x66, 0x69, 0x65, 0x72, 0x2f, 0x64, 0x65, 0x6e, 0x73,
    0x65, 0x5f, 0x31, 0x2f, 0x4d, 0x61, 0x74, 0x4d, 0x75, 0x6c, 0x00, 0x00,
    0x02, 0x00, 0x00, 0x00, 0x40, 0x00, 0x00, 0x00, 0x40, 0x00, 0x00, 0x00,
    0xfe, 0xfe, 0xff, 0xff, 0x00, 0x00, 0x00, 0x01, 0x14, 0x00, 0x00, 0x00,
    0x34, 0x00, 0x00, 0x00, 0x04, 0x00, 0x00, 0x00, 0x00, 0x00, 0x00, 0x02,
    0x68, 0x00, 0x00, 0x00, 0x3c, 0xfe, 0xff, 0xff, 0x08, 0x00, 0x00, 0x00,
    0x14, 0x00, 0x00, 0x00, 0x01, 0x00, 0x00, 0x00, 0x00, 0x00, 0x00, 0x00,
    0x00, 0x00, 0x00, 0x00, 0x00, 0x00, 0x00, 0x00, 0x01, 0x00, 0x00, 0x00,
    0x11, 0x9e, 0x9b, 0x37, 0x3a, 0x00, 0x00, 0x00, 0x64, 0x65, 0x6e, 0x73,
    0x65, 0x5f, 0x62, 0x6f, 0x77, 0x5f, 0x62, 0x69, 0x6e, 0x61, 0x72, 0x79,
    0x5f, 0x63, 0x6c, 0x61, 0x73, 0x73, 0x69, 0x66, 0x69, 0x65, 0x72, 0x2f,
    0x64, 0x65, 0x6e, 0x73, 0x65, 0x5f, 0x31, 0x2f, 0x42, 0x69, 0x61, 0x73,
    0x41, 0x64, 0x64, 0x2f, 0x52, 0x65, 0x61, 0x64, 0x56, 0x61, 0x72, 0x69,
    0x61, 0x62, 0x6c, 0x65, 0x4f, 0x70, 0x00, 0x00, 0x01, 0x00, 0x00, 0x00,
    0x40, 0x00, 0x00, 0x00, 0x86, 0xff, 0xff, 0xff, 0x00, 0x00, 0x00, 0x01,
    0x14, 0x00, 0x00, 0x00, 0x30, 0x00, 0x00, 0x00, 0x03, 0x00, 0x00, 0x00,
    0x00, 0x00, 0x00, 0x09, 0x54, 0x00, 0x00, 0x00, 0xc4, 0xfe, 0xff, 0xff,
    0x08, 0x00, 0x00, 0x00, 0x10, 0x00, 0x00, 0x00, 0x01, 0x00, 0x00, 0x00,
    0x00, 0x00, 0x00, 0x00, 0x00, 0x00, 0x00, 0x00, 0x01, 0x00, 0x00, 0x00,
    0xad, 0xbe, 0x7d, 0x3b, 0x2a, 0x00, 0x00, 0x00, 0x64, 0x65, 0x6e, 0x73,
    0x65, 0x5f, 0x62, 0x6f, 0x77, 0x5f, 0x62, 0x69, 0x6e, 0x61, 0x72, 0x79,
    0x5f, 0x63, 0x6c, 0x61, 0x73, 0x73, 0x69, 0x66, 0x69, 0x65, 0x72, 0x2f,
    0x64, 0x65, 0x6e, 0x73, 0x65, 0x5f, 0x32, 0x2f, 0x4d, 0x61, 0x74, 0x4d,
    0x75, 0x6c, 0x00, 0x00, 0x02, 0x00, 0x00, 0x00, 0x01, 0x00, 0x00, 0x00,
    0x40, 0x00, 0x00, 0x00, 0x00, 0x00, 0x16, 0x00, 0x1c, 0x00, 0x18, 0x00,
    0x17, 0x00, 0x10, 0x00, 0x0c, 0x00, 0x08, 0x00, 0x00, 0x00, 0x00, 0x00,
    0x00, 0x00, 0x07, 0x00, 0x16, 0x00, 0x00, 0x00, 0x00, 0x00, 0x00, 0x01,
    0x14, 0x00, 0x00, 0x00, 0x30, 0x00, 0x00, 0x00, 0x02, 0x00, 0x00, 0x00,
    0x00, 0x00, 0x00, 0x02, 0x64, 0x00, 0x00, 0x00, 0x54, 0xff, 0xff, 0xff,
    0x08, 0x00, 0x00, 0x00, 0x10, 0x00, 0x00, 0x00, 0x01, 0x00, 0x00, 0x00,
    0x00, 0x00, 0x00, 0x00, 0x00, 0x00, 0x00, 0x00, 0x01, 0x00, 0x00, 0x00,
    0xa3, 0xac, 0x93, 0x38, 0x3a, 0x00, 0x00, 0x00, 0x64, 0x65, 0x6e, 0x73,
    0x65, 0x5f, 0x62, 0x6f, 0x77, 0x5f, 0x62, 0x69, 0x6e, 0x61, 0x72, 0x79,
    0x5f, 0x63, 0x6c, 0x61, 0x73, 0x73, 0x69, 0x66, 0x69, 0x65, 0x72, 0x2f,
    0x64, 0x65, 0x6e, 0x73, 0x65, 0x5f, 0x32, 0x2f, 0x42, 0x69, 0x61, 0x73,
    0x41, 0x64, 0x64, 0x2f, 0x52, 0x65, 0x61, 0x64, 0x56, 0x61, 0x72, 0x69,
    0x61, 0x62, 0x6c, 0x65, 0x4f, 0x70, 0x00, 0x00, 0x01, 0x00, 0x00, 0x00,
    0x01, 0x00, 0x00, 0x00, 0x00, 0x00, 0x16, 0x00, 0x20, 0x00, 0x1c, 0x00,
    0x1b, 0x00, 0x14, 0x00, 0x10, 0x00, 0x0c, 0x00, 0x00, 0x00, 0x00, 0x00,
    0x08, 0x00, 0x07, 0x00, 0x16, 0x00, 0x00, 0x00, 0x00, 0x00, 0x00, 0x01,
    0x18, 0x00, 0x00, 0x00, 0x2c, 0x00, 0x00, 0x00, 0x48, 0x00, 0x00, 0x00,
    0x01, 0x00, 0x00, 0x00, 0x00, 0x00, 0x00, 0x03, 0x5c, 0x00, 0x00, 0x00,
    0x02, 0x00, 0x00, 0x00, 0xff, 0xff, 0xff, 0xff, 0x5e, 0x00, 0x00, 0x00,
    0x0c, 0x00, 0x0c, 0x00, 0x00, 0x00, 0x00, 0x00, 0x08, 0x00, 0x04, 0x00,
    0x0c, 0x00, 0x00, 0x00, 0x08, 0x00, 0x00, 0x00, 0x10, 0x00, 0x00, 0x00,
    0x01, 0x00, 0x00, 0x00, 0x00, 0x00, 0x00, 0x00, 0x00, 0x00, 0x00, 0x00,
    0x01, 0x00, 0x00, 0x00, 0xc1, 0xc0, 0x40, 0x3c, 0x19, 0x00, 0x00, 0x00,
    0x73, 0x65, 0x72, 0x76, 0x69, 0x6e, 0x67, 0x5f, 0x64, 0x65, 0x66, 0x61,
    0x75, 0x6c, 0x74, 0x5f, 0x69, 0x6e, 0x70, 0x75, 0x74, 0x5f, 0x31, 0x3a,
    0x30, 0x00, 0x00, 0x00, 0x02, 0x00, 0x00, 0x00, 0x01, 0x00, 0x00, 0x00,
    0x5e, 0x00, 0x00, 0x00, 0x03, 0x00, 0x00, 0x00, 0x44, 0x00, 0x00, 0x00,
    0x24, 0x00, 0x00, 0x00, 0x04, 0x00, 0x00, 0x00, 0xf0, 0xff, 0xff, 0xff,
    0x0e, 0x00, 0x00, 0x00, 0x02, 0x00, 0x00, 0x00, 0x00, 0x00, 0x00, 0x0e,
    0x0c, 0x00, 0x10, 0x00, 0x0f, 0x00, 0x00, 0x00, 0x08, 0x00, 0x04, 0x00,
    0x0c, 0x00, 0x00, 0x00, 0x09, 0x00, 0x00, 0x00, 0x04, 0x00, 0x00, 0x00,
    0x00, 0x00, 0x00, 0x09, 0x0c, 0x00, 0x0c, 0x00, 0x0b, 0x00, 0x00, 0x00,
    0x00, 0x00, 0x04, 0x00, 0x0c, 0x00, 0x00, 0x00, 0x72, 0x00, 0x00, 0x00,
    0x00, 0x00, 0x00, 0x72
};

static const size_t MG_Battery_Active_Power_any_to_80_100_dense_bow_v500_len = 13600;
static const uint64_t MG_Battery_Active_Power_any_to_80_100_dense_bow_v500_exec_time = 11;
static const float MG_Battery_Active_Power_any_to_80_100_dense_bow_v500_threshold = 0.10773329436779022f;
static const size_t MG_Battery_Active_Power_any_to_80_100_dense_bow_v500_arena_required = 20400;

static const event_t MG_Battery_Active_Power_any_to_80_100_dense_bow_v500_triggers[] = {0};
static const size_t MG_Battery_Active_Power_any_to_80_100_dense_bow_v500_trigger_count = 0;
static const bool MG_Battery_Active_Power_any_to_80_100_dense_bow_v500_trigger_all = true;

const model_t g_models[] = {
{
    .name = "Battery_Active_Power_any-to-80_100-dense_bow-v500",
    .data = MG_Battery_Active_Power_any_to_80_100_dense_bow_v500,
    .size = MG_Battery_Active_Power_any_to_80_100_dense_bow_v500_len,
    .exec_time = MG_Battery_Active_Power_any_to_80_100_dense_bow_v500_exec_time,
    .threshold = MG_Battery_Active_Power_any_to_80_100_dense_bow_v500_threshold,
    .arena_required = MG_Battery_Active_Power_any_to_80_100_dense_bow_v500_arena_required,
    .triggers = MG_Battery_Active_Power_any_to_80_100_dense_bow_v500_triggers,
    .trigger_count = MG_Battery_Active_Power_any_to_80_100_dense_bow_v500_trigger_count,
    .trigger_all = MG_Battery_Active_Power_any_to_80_100_dense_bow_v500_trigger_all
},
};

const size_t g_models_count = sizeof(g_models)/sizeof(g_models[0]);
